unsigned char invkine_model[] = {
  0x20, 0x00, 0x00, 0x00, 0x54, 0x46, 0x4c, 0x33, 0x00, 0x00, 0x00, 0x00,
  0x14, 0x00, 0x20, 0x00, 0x1c, 0x00, 0x18, 0x00, 0x14, 0x00, 0x10, 0x00,
  0x0c, 0x00, 0x00, 0x00, 0x08, 0x00, 0x04, 0x00, 0x14, 0x00, 0x00, 0x00,
  0x1c, 0x00, 0x00, 0x00, 0x84, 0x00, 0x00, 0x00, 0xdc, 0x00, 0x00, 0x00,
  0x28, 0x0b, 0x00, 0x00, 0x38, 0x0b, 0x00, 0x00, 0x9c, 0x14, 0x00, 0x00,
  0x03, 0x00, 0x00, 0x00, 0x01, 0x00, 0x00, 0x00, 0x04, 0x00, 0x00, 0x00,
  0x82, 0xf4, 0xff, 0xff, 0x0c, 0x00, 0x00, 0x00, 0x1c, 0x00, 0x00, 0x00,
  0x38, 0x00, 0x00, 0x00, 0x0f, 0x00, 0x00, 0x00, 0x73, 0x65, 0x72, 0x76,
  0x69, 0x6e, 0x67, 0x5f, 0x64, 0x65, 0x66, 0x61, 0x75, 0x6c, 0x74, 0x00,
  0x01, 0x00, 0x00, 0x00, 0x04, 0x00, 0x00, 0x00, 0x98, 0xff, 0xff, 0xff,
  0x0e, 0x00, 0x00, 0x00, 0x04, 0x00, 0x00, 0x00, 0x07, 0x00, 0x00, 0x00,
  0x64, 0x65, 0x6e, 0x73, 0x65, 0x5f, 0x33, 0x00, 0x01, 0x00, 0x00, 0x00,
  0x04, 0x00, 0x00, 0x00, 0x5e, 0xf5, 0xff, 0xff, 0x04, 0x00, 0x00, 0x00,
  0x0b, 0x00, 0x00, 0x00, 0x64, 0x65, 0x6e, 0x73, 0x65, 0x5f, 0x69, 0x6e,
  0x70, 0x75, 0x74, 0x00, 0x02, 0x00, 0x00, 0x00, 0x34, 0x00, 0x00, 0x00,
  0x04, 0x00, 0x00, 0x00, 0xdc, 0xff, 0xff, 0xff, 0x11, 0x00, 0x00, 0x00,
  0x04, 0x00, 0x00, 0x00, 0x13, 0x00, 0x00, 0x00, 0x43, 0x4f, 0x4e, 0x56,
  0x45, 0x52, 0x53, 0x49, 0x4f, 0x4e, 0x5f, 0x4d, 0x45, 0x54, 0x41, 0x44,
  0x41, 0x54, 0x41, 0x00, 0x08, 0x00, 0x0c, 0x00, 0x08, 0x00, 0x04, 0x00,
  0x08, 0x00, 0x00, 0x00, 0x10, 0x00, 0x00, 0x00, 0x04, 0x00, 0x00, 0x00,
  0x13, 0x00, 0x00, 0x00, 0x6d, 0x69, 0x6e, 0x5f, 0x72, 0x75, 0x6e, 0x74,
  0x69, 0x6d, 0x65, 0x5f, 0x76, 0x65, 0x72, 0x73, 0x69, 0x6f, 0x6e, 0x00,
  0x12, 0x00, 0x00, 0x00, 0x48, 0x0a, 0x00, 0x00, 0x40, 0x0a, 0x00, 0x00,
  0x28, 0x0a, 0x00, 0x00, 0xac, 0x09, 0x00, 0x00, 0xd4, 0x08, 0x00, 0x00,
  0xe8, 0x02, 0x00, 0x00, 0x60, 0x02, 0x00, 0x00, 0x24, 0x01, 0x00, 0x00,
  0xec, 0x00, 0x00, 0x00, 0xbc, 0x00, 0x00, 0x00, 0xb4, 0x00, 0x00, 0x00,
  0xac, 0x00, 0x00, 0x00, 0xa4, 0x00, 0x00, 0x00, 0x9c, 0x00, 0x00, 0x00,
  0x94, 0x00, 0x00, 0x00, 0x8c, 0x00, 0x00, 0x00, 0x6c, 0x00, 0x00, 0x00,
  0x04, 0x00, 0x00, 0x00, 0x1e, 0xf6, 0xff, 0xff, 0x04, 0x00, 0x00, 0x00,
  0x58, 0x00, 0x00, 0x00, 0x0c, 0x00, 0x00, 0x00, 0x08, 0x00, 0x0e, 0x00,
  0x08, 0x00, 0x04, 0x00, 0x08, 0x00, 0x00, 0x00, 0x10, 0x00, 0x00, 0x00,
  0x28, 0x00, 0x00, 0x00, 0x00, 0x00, 0x06, 0x00, 0x08, 0x00, 0x04, 0x00,
  0x06, 0x00, 0x00, 0x00, 0x04, 0x00, 0x00, 0x00, 0x01, 0x00, 0x00, 0x00,
  0xeb, 0x03, 0x00, 0x00, 0x00, 0x00, 0x0a, 0x00, 0x10, 0x00, 0x0c, 0x00,
  0x08, 0x00, 0x04, 0x00, 0x0a, 0x00, 0x00, 0x00, 0x02, 0x00, 0x00, 0x00,
  0x02, 0x00, 0x00, 0x00, 0x04, 0x00, 0x00, 0x00, 0x06, 0x00, 0x00, 0x00,
  0x32, 0x2e, 0x31, 0x32, 0x2e, 0x30, 0x00, 0x00, 0x82, 0xf6, 0xff, 0xff,
  0x04, 0x00, 0x00, 0x00, 0x10, 0x00, 0x00, 0x00, 0x31, 0x2e, 0x31, 0x34,
  0x2e, 0x30, 0x00, 0x00, 0x00, 0x00, 0x00, 0x00, 0x00, 0x00, 0x00, 0x00,
  0x38, 0xed, 0xff, 0xff, 0x3c, 0xed, 0xff, 0xff, 0x40, 0xed, 0xff, 0xff,
  0x44, 0xed, 0xff, 0xff, 0x48, 0xed, 0xff, 0xff, 0x4c, 0xed, 0xff, 0xff,
  0xb6, 0xf6, 0xff, 0xff, 0x04, 0x00, 0x00, 0x00, 0x1e, 0x00, 0x00, 0x00,
  0xd2, 0x18, 0xc4, 0xb8, 0x9e, 0xd4, 0x2c, 0x98, 0x60, 0x01, 0x99, 0xd5,
  0x2e, 0x0e, 0xb0, 0xb4, 0x5a, 0xe6, 0xf0, 0x48, 0xfc, 0x48, 0x37, 0x22,
  0x0b, 0xe0, 0x14, 0x2e, 0x81, 0xb5, 0x00, 0x00, 0xe2, 0xf6, 0xff, 0xff,
  0x04, 0x00, 0x00, 0x00, 0x28, 0x00, 0x00, 0x00, 0x2d, 0xff, 0xff, 0xff,
  0x8b, 0x06, 0x00, 0x00, 0xce, 0x03, 0x00, 0x00, 0x51, 0x02, 0x00, 0x00,
  0x30, 0xfb, 0xff, 0xff, 0xbe, 0xfe, 0xff, 0xff, 0x86, 0x07, 0x00, 0x00,
  0xfc, 0xfd, 0xff, 0xff, 0x1f, 0x05, 0x00, 0x00, 0xba, 0x02, 0x00, 0x00,
  0x16, 0xf7, 0xff, 0xff, 0x04, 0x00, 0x00, 0x00, 0x2c, 0x01, 0x00, 0x00,
  0x16, 0xde, 0xfc, 0xee, 0xc5, 0x32, 0xfc, 0xd4, 0x45, 0x53, 0x31, 0xda,
  0x17, 0x4f, 0x84, 0x2c, 0xc8, 0xf5, 0x52, 0x56, 0xb6, 0xe0, 0xbb, 0x42,
  0xc9, 0x3e, 0xcb, 0xbc, 0x3e, 0x1f, 0x22, 0x09, 0xcd, 0xbd, 0x0c, 0x15,
  0x18, 0x41, 0xb2, 0xba, 0x29, 0xc5, 0xba, 0xb8, 0x0e, 0xcc, 0xdb, 0x42,
  0xb4, 0xeb, 0xe9, 0x13, 0xf0, 0xe2, 0xcf, 0x15, 0x4d, 0x0c, 0x23, 0x63,
  0xfb, 0x49, 0x31, 0x0b, 0xfd, 0xc5, 0x3b, 0x20, 0x3f, 0x13, 0xdb, 0x02,
  0x2e, 0xc3, 0xcc, 0xd8, 0x34, 0xcf, 0x56, 0xe3, 0xc9, 0xf8, 0xf5, 0x0f,
  0x1b, 0xe6, 0x38, 0xb2, 0xde, 0x3c, 0xd8, 0x17, 0xf4, 0x2e, 0x02, 0x16,
  0xed, 0xac, 0xf0, 0x73, 0xbb, 0xb2, 0x4c, 0xff, 0x06, 0xcb, 0xe1, 0x2b,
  0xf5, 0x49, 0x3b, 0x20, 0x02, 0x4b, 0xbc, 0xe6, 0x19, 0xce, 0x5e, 0x6a,
  0xd6, 0xf1, 0x4a, 0x0f, 0xc1, 0xdf, 0x3e, 0xcb, 0x28, 0x09, 0x35, 0x2c,
  0x43, 0x0b, 0xc4, 0xe4, 0xee, 0x9b, 0x26, 0x45, 0xfa, 0xe0, 0xef, 0x27,
  0x81, 0x1c, 0x1d, 0xed, 0x28, 0xc2, 0xf2, 0xf1, 0x35, 0x21, 0x10, 0x12,
  0x3d, 0x0b, 0x20, 0x4b, 0x26, 0xe5, 0x15, 0x53, 0x40, 0x25, 0x0d, 0xef,
  0x03, 0x19, 0x31, 0x0e, 0x04, 0xeb, 0xce, 0x3a, 0x4b, 0x1c, 0x1a, 0x00,
  0x38, 0x07, 0x35, 0x4e, 0x52, 0x2f, 0x46, 0xf9, 0x52, 0x5a, 0xcb, 0xfb,
  0xdb, 0x02, 0x3a, 0xce, 0xd9, 0xd0, 0xfb, 0xf9, 0x3f, 0x49, 0x29, 0xf4,
  0x21, 0x14, 0xfc, 0xde, 0x04, 0xeb, 0x2a, 0x41, 0xdd, 0x02, 0xfb, 0x04,
  0xd8, 0xcf, 0x0b, 0x56, 0x42, 0x16, 0x53, 0x0f, 0xda, 0x46, 0xd2, 0x0a,
  0x56, 0x4b, 0xfe, 0x2c, 0x34, 0xe4, 0x92, 0xf2, 0xe9, 0x15, 0x2d, 0x3b,
  0xd5, 0xf3, 0x49, 0x36, 0xcb, 0xf6, 0x1a, 0xe1, 0xf8, 0x3f, 0xd6, 0x1f,
  0xb2, 0xc4, 0x04, 0x18, 0xf7, 0x2b, 0xfc, 0x9c, 0x35, 0xe2, 0xf1, 0xcf,
  0x01, 0x34, 0xf4, 0x22, 0x2b, 0xcf, 0x51, 0x44, 0x39, 0x27, 0xc8, 0xce,
  0x08, 0xb7, 0x5a, 0x0e, 0xf0, 0x2e, 0x24, 0xee, 0xd9, 0x0e, 0xdf, 0x1b,
  0xbd, 0xff, 0x30, 0x32, 0x3a, 0x64, 0xf7, 0x1c, 0xf1, 0xdf, 0xbb, 0x33,
  0x4e, 0xf8, 0xff, 0xff, 0x04, 0x00, 0x00, 0x00, 0x78, 0x00, 0x00, 0x00,
  0x91, 0x0b, 0x00, 0x00, 0x84, 0x03, 0x00, 0x00, 0x4a, 0xfd, 0xff, 0xff,
  0x0a, 0xd1, 0xff, 0xff, 0xc8, 0xf9, 0xff, 0xff, 0x27, 0x0a, 0x00, 0x00,
  0x5c, 0x0e, 0x00, 0x00, 0x27, 0x1d, 0x00, 0x00, 0x59, 0x19, 0x00, 0x00,
  0xc3, 0x0c, 0x00, 0x00, 0xcd, 0xfa, 0xff, 0xff, 0x21, 0xf2, 0xff, 0xff,
  0x79, 0x1a, 0x00, 0x00, 0xa2, 0x12, 0x00, 0x00, 0x01, 0x14, 0x00, 0x00,
  0xf6, 0x04, 0x00, 0x00, 0x02, 0x07, 0x00, 0x00, 0xe2, 0x08, 0x00, 0x00,
  0xeb, 0xf9, 0xff, 0xff, 0x00, 0x00, 0x00, 0x00, 0x1d, 0x0e, 0x00, 0x00,
  0x2e, 0x09, 0x00, 0x00, 0x27, 0xf7, 0xff, 0xff, 0x53, 0x07, 0x00, 0x00,
  0xd8, 0x16, 0x00, 0x00, 0x9c, 0x0f, 0x00, 0x00, 0x0c, 0xef, 0xff, 0xff,
  0x50, 0x10, 0x00, 0x00, 0x8c, 0x12, 0x00, 0x00, 0x30, 0x0e, 0x00, 0x00,
  0xd2, 0xf8, 0xff, 0xff, 0x04, 0x00, 0x00, 0x00, 0xdc, 0x05, 0x00, 0x00,
  0xe1, 0x07, 0x00, 0x03, 0x0b, 0xf5, 0xe8, 0xea, 0xe8, 0x18, 0x14, 0xf5,
  0xef, 0xed, 0x0a, 0xe3, 0x04, 0x06, 0x0e, 0x06, 0xed, 0xfb, 0xef, 0x00,
  0x0c, 0x10, 0x1a, 0xdf, 0x11, 0xe4, 0xee, 0x0a, 0xe5, 0xff, 0x0b, 0x1a,
  0x22, 0x0a, 0x15, 0x18, 0xe1, 0xec, 0x2b, 0xf2, 0xf9, 0x1b, 0xfe, 0x12,
  0xeb, 0x0b, 0x17, 0x1a, 0xe6, 0x1c, 0x13, 0xe4, 0xe8, 0xf6, 0x0b, 0x01,
  0x1f, 0xeb, 0x20, 0xe8, 0xff, 0x01, 0x01, 0x0e, 0x18, 0x21, 0xcd, 0xe5,
  0x19, 0x0f, 0xfb, 0xf1, 0xfa, 0x17, 0x16, 0x0e, 0x0e, 0xed, 0x08, 0xf2,
  0x26, 0x04, 0x07, 0x14, 0x12, 0xf4, 0xd7, 0xef, 0x0f, 0x09, 0x26, 0x00,
  0x0b, 0xe5, 0xe7, 0x0d, 0x09, 0xd9, 0xf1, 0xed, 0xdd, 0x2b, 0xe3, 0x00,
  0x1e, 0xed, 0xd1, 0x1e, 0x17, 0x02, 0xec, 0x10, 0x0d, 0xd3, 0x1c, 0xe6,
  0xfc, 0xec, 0xf9, 0x12, 0x09, 0x06, 0xff, 0x1d, 0x37, 0x28, 0xdd, 0xe9,
  0x10, 0xf9, 0xf6, 0xee, 0xf9, 0x08, 0xf8, 0xf2, 0xfe, 0x05, 0xe2, 0x1a,
  0xfa, 0x1f, 0x05, 0x10, 0x1d, 0x0d, 0x1f, 0x13, 0xfc, 0x2f, 0x01, 0xf1,
  0x0d, 0xef, 0xf9, 0x23, 0xe5, 0x15, 0x1d, 0x0e, 0xe8, 0x07, 0x09, 0x16,
  0xf3, 0x18, 0x09, 0x15, 0x30, 0x20, 0x00, 0x18, 0x06, 0x26, 0x21, 0x0d,
  0xf2, 0xe8, 0xf3, 0xc6, 0xe5, 0x18, 0x04, 0x38, 0x12, 0x04, 0xf6, 0xfe,
  0x2c, 0x02, 0x07, 0x06, 0x18, 0xf6, 0xf5, 0xfd, 0x0c, 0xee, 0xd5, 0xed,
  0x07, 0x13, 0xf5, 0x21, 0x07, 0xfa, 0x14, 0xff, 0xf3, 0x1b, 0xfa, 0x29,
  0x2a, 0xe5, 0xf2, 0x13, 0x19, 0x1e, 0xe7, 0xf3, 0xf7, 0x17, 0x1c, 0x06,
  0x10, 0xe2, 0xff, 0xf6, 0x30, 0x04, 0x06, 0x01, 0xff, 0x26, 0x16, 0x0a,
  0xea, 0xeb, 0xe6, 0xe6, 0x06, 0xf2, 0x03, 0x0a, 0x1d, 0xf1, 0xf2, 0x11,
  0xe4, 0xeb, 0xed, 0xde, 0xf4, 0x0d, 0x03, 0xe7, 0x06, 0xf3, 0xf1, 0xfb,
  0x0e, 0x10, 0xde, 0xf3, 0x0f, 0xeb, 0x11, 0x22, 0x16, 0x05, 0xfc, 0x23,
  0x1d, 0xd0, 0xf7, 0x13, 0xff, 0xfe, 0xfb, 0x31, 0xef, 0x09, 0x0b, 0x20,
  0x25, 0xe8, 0x1d, 0x03, 0x00, 0xf2, 0xf0, 0xf6, 0x05, 0x28, 0xed, 0x25,
  0x20, 0x1a, 0xf3, 0xe4, 0x00, 0x18, 0x1b, 0x23, 0x18, 0x1f, 0xee, 0x06,
  0x08, 0x1c, 0x08, 0xe6, 0x08, 0x18, 0xed, 0x03, 0xeb, 0x1f, 0xfc, 0x10,
  0x2d, 0xec, 0xf9, 0x1a, 0x0b, 0x1b, 0x1e, 0xe4, 0xee, 0x0e, 0x07, 0x09,
  0xef, 0x0d, 0xfc, 0x28, 0xce, 0x0c, 0xfe, 0x01, 0xe9, 0x1a, 0x15, 0x0e,
  0x06, 0xe2, 0x08, 0xef, 0xe6, 0xea, 0x00, 0xf4, 0x10, 0xf2, 0x10, 0xf6,
  0x09, 0x35, 0x09, 0x49, 0x18, 0xf3, 0xf0, 0xb9, 0xbf, 0xc9, 0x27, 0xf9,
  0x95, 0xb3, 0xc4, 0x1f, 0x1f, 0x18, 0x16, 0x01, 0xf1, 0xeb, 0x2e, 0xf1,
  0xc5, 0x1d, 0x41, 0xd4, 0xe4, 0x15, 0xf8, 0xf3, 0x16, 0xea, 0x15, 0xf2,
  0x1d, 0x08, 0xf8, 0xdf, 0xec, 0xe6, 0x0b, 0xe9, 0x1f, 0xe9, 0xff, 0xfd,
  0xe1, 0xf4, 0x01, 0xe5, 0xe4, 0xef, 0xf3, 0x19, 0xf9, 0x00, 0x1a, 0xe5,
  0xee, 0xe3, 0x1a, 0xfd, 0x1a, 0xe3, 0xfd, 0xe7, 0xda, 0x16, 0xf8, 0xe3,
  0xf5, 0x00, 0x19, 0xf5, 0x15, 0x0a, 0xeb, 0xe3, 0x06, 0xf1, 0xf9, 0x19,
  0x11, 0x0e, 0xf8, 0xed, 0xfb, 0x07, 0x1e, 0x19, 0xee, 0xe6, 0xed, 0x24,
  0x07, 0x01, 0x02, 0xf1, 0x00, 0x07, 0xfa, 0x01, 0x16, 0x04, 0xf0, 0xef,
  0xe7, 0xe9, 0xf5, 0xfb, 0xed, 0xf5, 0xf9, 0xf3, 0xea, 0xf6, 0x17, 0x1a,
  0xfa, 0x0d, 0xf6, 0xd3, 0xf7, 0xfb, 0x1c, 0x15, 0x1d, 0x21, 0xfc, 0x05,
  0x2a, 0x17, 0xf8, 0x05, 0xf6, 0x01, 0xe8, 0x09, 0x02, 0x14, 0x21, 0xf0,
  0x01, 0xe4, 0xf4, 0x11, 0x15, 0x11, 0x17, 0x0b, 0xeb, 0xe5, 0xf5, 0x1e,
  0x00, 0x11, 0x03, 0x17, 0x0b, 0xe4, 0x06, 0x01, 0x13, 0xe5, 0xee, 0xf1,
  0xe9, 0xef, 0x16, 0xe7, 0x03, 0x15, 0x19, 0x10, 0xf9, 0xef, 0x27, 0x17,
  0xf5, 0x18, 0xfb, 0xe1, 0xf5, 0xe9, 0xf0, 0x36, 0x0a, 0x1e, 0xe2, 0xe2,
  0x2c, 0xee, 0x0f, 0x04, 0xfe, 0x0a, 0x19, 0xfd, 0x13, 0x23, 0xe1, 0x17,
  0x04, 0xea, 0xea, 0x01, 0x27, 0x1f, 0xff, 0x03, 0xf7, 0xdd, 0xd6, 0xef,
  0x23, 0x2b, 0x1c, 0xff, 0x02, 0x14, 0x01, 0xf2, 0xfd, 0x16, 0x03, 0xf7,
  0xff, 0xf4, 0xf3, 0x09, 0xe3, 0x12, 0x21, 0x14, 0xf2, 0xff, 0x08, 0x13,
  0x01, 0xf3, 0x05, 0xd5, 0xff, 0x18, 0x00, 0x10, 0x2e, 0x0e, 0xf3, 0xd4,
  0x10, 0x03, 0xf5, 0x07, 0xf7, 0xf9, 0xf8, 0xe9, 0x04, 0xf8, 0xff, 0x13,
  0x18, 0xf1, 0x08, 0xec, 0xf8, 0x12, 0xf7, 0x0d, 0xeb, 0xf6, 0xf3, 0x1d,
  0x0a, 0xf3, 0xfb, 0x21, 0xe1, 0x0c, 0x14, 0x27, 0x09, 0x0f, 0x18, 0x12,
  0xfb, 0xf9, 0x1f, 0x0f, 0xea, 0xfa, 0x13, 0xe5, 0xf8, 0x24, 0x05, 0xfa,
  0xe8, 0x0c, 0x0c, 0xfe, 0x16, 0x1e, 0xeb, 0xed, 0xe9, 0xf9, 0x15, 0xfd,
  0x13, 0x0e, 0xf0, 0xf0, 0x0a, 0x03, 0xe5, 0xe5, 0xfb, 0xf4, 0x1a, 0xe9,
  0x0f, 0xe4, 0x08, 0x02, 0xed, 0xfa, 0x09, 0xdd, 0xed, 0x16, 0xf9, 0xf7,
  0xe6, 0x0e, 0xf1, 0x19, 0xee, 0x03, 0x0a, 0x06, 0xfd, 0x04, 0x0a, 0xe2,
  0x0a, 0x13, 0x19, 0x11, 0x12, 0xec, 0xea, 0xea, 0x0c, 0xfb, 0xe1, 0xe5,
  0xd4, 0xb0, 0x05, 0xe9, 0xf2, 0x06, 0x24, 0x38, 0x15, 0xd9, 0x1e, 0xc9,
  0x16, 0xd0, 0xf3, 0xf7, 0x0c, 0xdf, 0x0f, 0x0e, 0xfd, 0x06, 0xfb, 0x0f,
  0x0b, 0x12, 0x04, 0x00, 0x08, 0xda, 0xf8, 0x27, 0x0e, 0x3b, 0x09, 0xf1,
  0xf6, 0xe2, 0x09, 0x1f, 0xea, 0x05, 0xf3, 0xfd, 0xff, 0xfb, 0x0a, 0xfd,
  0x15, 0xf4, 0x1c, 0x0d, 0x29, 0x17, 0x17, 0x11, 0x0f, 0x08, 0x00, 0x22,
  0xdd, 0xf3, 0xfa, 0xff, 0x14, 0xec, 0x0d, 0xf8, 0x05, 0x17, 0x02, 0x1b,
  0xfe, 0xec, 0xdf, 0xef, 0x13, 0xf0, 0x03, 0x1c, 0x14, 0xea, 0xef, 0x08,
  0xef, 0xf7, 0xec, 0x14, 0xe3, 0x06, 0xfa, 0x1f, 0xf4, 0x14, 0x00, 0x04,
  0x0e, 0x16, 0x0d, 0x2c, 0xd0, 0xff, 0x2d, 0x26, 0xf4, 0x07, 0x08, 0xda,
  0xed, 0x0e, 0x16, 0xf5, 0x09, 0x04, 0x32, 0xd8, 0x01, 0x27, 0xf6, 0xf1,
  0x21, 0xe2, 0x0f, 0xdd, 0xfd, 0xfa, 0xf7, 0x27, 0xfd, 0x20, 0xdb, 0x11,
  0x1a, 0x17, 0x1d, 0xdf, 0x1b, 0x0c, 0x02, 0x00, 0x0a, 0xea, 0xea, 0x01,
  0x12, 0x0e, 0x15, 0xfa, 0x1b, 0x0f, 0x0a, 0x24, 0x12, 0x36, 0x14, 0xff,
  0x06, 0xf9, 0xf0, 0x36, 0xf8, 0xfe, 0x13, 0x0f, 0x24, 0x17, 0x00, 0x04,
  0x1a, 0x13, 0xf6, 0x25, 0x27, 0xfd, 0x0c, 0xe6, 0xef, 0x21, 0x03, 0x27,
  0xf7, 0xe7, 0x01, 0x07, 0x11, 0xf1, 0x09, 0xf9, 0xde, 0xf0, 0x02, 0x0d,
  0xe3, 0xde, 0xf5, 0xdf, 0x0d, 0x08, 0x10, 0x06, 0x10, 0xe2, 0xf8, 0x00,
  0x13, 0x0f, 0xf4, 0x17, 0x02, 0xe7, 0x1d, 0xf2, 0xf6, 0xc6, 0x00, 0xe7,
  0x18, 0x2f, 0x15, 0x00, 0xf5, 0xe5, 0x26, 0x1f, 0x19, 0x17, 0x09, 0x0a,
  0xdf, 0x15, 0x17, 0xe8, 0xdc, 0xf3, 0x20, 0x10, 0xd7, 0xff, 0x21, 0x08,
  0x0e, 0xf7, 0x1b, 0x16, 0x1e, 0x22, 0x1a, 0x05, 0x2e, 0x08, 0xd8, 0xef,
  0xf7, 0x13, 0xea, 0xe9, 0x12, 0x12, 0x07, 0xe6, 0x14, 0x28, 0x12, 0xee,
  0xfa, 0x1c, 0x0b, 0x0d, 0xfd, 0xf6, 0xfd, 0xf5, 0x1f, 0xf5, 0x04, 0x05,
  0x02, 0x1e, 0x21, 0x0c, 0xcd, 0x10, 0x20, 0xfa, 0xf2, 0x0e, 0x10, 0xe3,
  0xec, 0xe1, 0x1f, 0x0a, 0xfa, 0x0c, 0xf4, 0x12, 0x12, 0x19, 0x25, 0xfd,
  0x08, 0xed, 0xf3, 0xc8, 0xd8, 0x07, 0xf0, 0x18, 0x26, 0xf5, 0xd3, 0xf2,
  0x14, 0x1b, 0xf7, 0xfc, 0x14, 0xf6, 0xff, 0xed, 0x22, 0x04, 0xd6, 0xe5,
  0x0a, 0x1d, 0xeb, 0xf6, 0x03, 0xee, 0x0c, 0x11, 0x01, 0xca, 0xc8, 0xee,
  0x19, 0x24, 0x2c, 0x02, 0xd5, 0xf6, 0x26, 0x1b, 0x07, 0xd9, 0xe2, 0x19,
  0xfc, 0xfb, 0xfa, 0x12, 0xd7, 0xf6, 0x1f, 0x14, 0x08, 0xef, 0x25, 0xf9,
  0x0e, 0x23, 0xe6, 0x1f, 0x0f, 0x0c, 0x19, 0xf7, 0x33, 0x1b, 0x06, 0x06,
  0x2c, 0x18, 0x11, 0x17, 0x20, 0xfa, 0xea, 0xfb, 0x1f, 0x0b, 0x20, 0x15,
  0x07, 0x12, 0x1d, 0x23, 0xfe, 0x0c, 0xfa, 0x0e, 0x1b, 0xf3, 0x0c, 0xe8,
  0x1b, 0xf6, 0xf4, 0x0e, 0x0a, 0x08, 0x00, 0xe9, 0x18, 0x12, 0x06, 0xec,
  0x03, 0x00, 0xe7, 0x1a, 0xfd, 0xff, 0xe6, 0x00, 0x05, 0x16, 0x1f, 0xfc,
  0x19, 0xf0, 0x0f, 0x11, 0xf6, 0x12, 0xe8, 0xef, 0xfd, 0x1c, 0xe0, 0x0f,
  0x14, 0xf9, 0x1b, 0x04, 0x1f, 0x15, 0x0c, 0x1d, 0xf2, 0xf6, 0xef, 0x1a,
  0x2b, 0xec, 0xf6, 0xf1, 0x1e, 0x25, 0xa9, 0xd2, 0x21, 0x19, 0xce, 0xf2,
  0x44, 0xcb, 0xf6, 0x16, 0x2f, 0x3e, 0x10, 0x24, 0x8a, 0x04, 0xf9, 0x97,
  0x11, 0x0b, 0x23, 0x2e, 0x3d, 0x24, 0x2b, 0x81, 0x00, 0x22, 0x04, 0x26,
  0x15, 0xeb, 0xfa, 0x00, 0xff, 0x0f, 0x02, 0xe6, 0xdc, 0x1d, 0x2b, 0x17,
  0xcc, 0x01, 0xed, 0xe2, 0x17, 0x08, 0x1e, 0xe1, 0xfb, 0x1b, 0x19, 0xf0,
  0x06, 0xe9, 0x0e, 0x0e, 0x08, 0xf2, 0xf3, 0x0c, 0xff, 0xec, 0x07, 0xf1,
  0x1e, 0xfe, 0x1e, 0x05, 0x06, 0xf7, 0x12, 0xf1, 0x18, 0xfc, 0xe7, 0x17,
  0x0a, 0xe4, 0x1b, 0xfb, 0x00, 0xf5, 0xfe, 0x18, 0xf6, 0x05, 0x1f, 0x15,
  0x22, 0xec, 0x10, 0x1c, 0x16, 0x22, 0x1d, 0x1b, 0x0e, 0xfd, 0xf1, 0x26,
  0xf4, 0x02, 0xed, 0x00, 0xf9, 0x13, 0xfe, 0x13, 0xec, 0x1f, 0x0a, 0x05,
  0x1c, 0xf8, 0x00, 0x01, 0xee, 0x08, 0x06, 0x05, 0xec, 0x0c, 0xf4, 0xf8,
  0xeb, 0xe5, 0xf6, 0x1d, 0xed, 0x1f, 0x18, 0x07, 0xe6, 0x08, 0x0c, 0x1a,
  0x0b, 0x05, 0x03, 0x15, 0xf8, 0x0b, 0x08, 0xe9, 0x21, 0x1d, 0x17, 0x1d,
  0x08, 0x02, 0x12, 0xf7, 0xf5, 0xec, 0xf3, 0x2b, 0x24, 0x0e, 0x03, 0x18,
  0xfc, 0xfc, 0x01, 0xf3, 0x1c, 0x1c, 0x0a, 0xef, 0x19, 0x04, 0x03, 0x07,
  0xf3, 0x13, 0x0c, 0x28, 0x13, 0xf2, 0x21, 0x10, 0xee, 0x15, 0xeb, 0xee,
  0xf8, 0x36, 0x18, 0x0b, 0x08, 0x09, 0x23, 0x1f, 0x09, 0x02, 0x0e, 0x13,
  0xf1, 0xfd, 0xf0, 0xfc, 0xdf, 0xed, 0x2c, 0x11, 0x00, 0x05, 0xf8, 0x0c,
  0x1c, 0xdb, 0xed, 0xb2, 0xef, 0x0c, 0x02, 0x5b, 0x23, 0xc3, 0x29, 0x98,
  0x47, 0xd3, 0x27, 0x0d, 0xee, 0x02, 0xe3, 0xfd, 0xf1, 0x8e, 0xd0, 0xe8,
  0x25, 0x11, 0x1c, 0xba, 0xc4, 0x9f, 0x0b, 0x01, 0x02, 0xf6, 0xe7, 0xf1,
  0xe0, 0xe6, 0x11, 0xe6, 0x15, 0x0e, 0x0f, 0x0e, 0xf7, 0x00, 0x0b, 0xe7,
  0xfd, 0x16, 0x04, 0xfc, 0xea, 0x05, 0xf0, 0x0e, 0xf1, 0x04, 0xf1, 0x17,
  0x16, 0xef, 0xe5, 0x1d, 0x04, 0xeb, 0x20, 0xfa, 0x18, 0xf5, 0xd5, 0x2a,
  0x21, 0x07, 0xf9, 0x04, 0x11, 0x0e, 0xff, 0x04, 0x10, 0x0d, 0x10, 0x16,
  0x11, 0x17, 0xed, 0x1d, 0x19, 0x0f, 0x11, 0x23, 0x0b, 0xf4, 0x14, 0xec,
  0xf3, 0x28, 0x2e, 0x1d, 0xf8, 0x18, 0x16, 0x2b, 0x21, 0xfc, 0x04, 0xef,
  0x13, 0xf6, 0xfe, 0xff, 0xf9, 0x17, 0x10, 0xff, 0xe5, 0x1f, 0x0b, 0x0a,
  0xba, 0xfe, 0xff, 0xff, 0x04, 0x00, 0x00, 0x00, 0xc8, 0x00, 0x00, 0x00,
  0xc9, 0xfb, 0xff, 0xff, 0x7f, 0x08, 0x00, 0x00, 0x86, 0x08, 0x00, 0x00,
  0x54, 0xf2, 0xff, 0xff, 0xbc, 0x0c, 0x00, 0x00, 0x94, 0xf7, 0xff, 0xff,
  0x34, 0x0e, 0x00, 0x00, 0xe4, 0xed, 0xff, 0xff, 0xf0, 0xfc, 0xff, 0xff,
  0xe2, 0xef, 0xff, 0xff, 0x05, 0x09, 0x00, 0x00, 0x38, 0x0b, 0x00, 0x00,
  0xaa, 0xe2, 0xff, 0xff, 0x5b, 0xfa, 0xff, 0xff, 0xe3, 0xfa, 0xff, 0xff,
  0xee, 0x11, 0x00, 0x00, 0x18, 0x07, 0x00, 0x00, 0xd9, 0x10, 0x00, 0x00,
  0x24, 0x0b, 0x00, 0x00, 0xb1, 0x0e, 0x00, 0x00, 0xd5, 0x0f, 0x00, 0x00,
  0x6e, 0x06, 0x00, 0x00, 0x00, 0x00, 0x00, 0x00, 0xee, 0xfb, 0xff, 0xff,
  0xde, 0x02, 0x00, 0x00, 0x93, 0xfa, 0xff, 0xff, 0x58, 0xfb, 0xff, 0xff,
  0x49, 0x04, 0x00, 0x00, 0x25, 0x0c, 0x00, 0x00, 0xef, 0xf7, 0xff, 0xff,
  0xfa, 0xfa, 0xff, 0xff, 0x66, 0x0e, 0x00, 0x00, 0x1c, 0x07, 0x00, 0x00,
  0x7f, 0x0c, 0x00, 0x00, 0xe5, 0x0e, 0x00, 0x00, 0xc2, 0x0b, 0x00, 0x00,
  0xa9, 0x07, 0x00, 0x00, 0x81, 0xfd, 0xff, 0xff, 0xf9, 0x04, 0x00, 0x00,
  0x4d, 0xd0, 0xff, 0xff, 0x98, 0xfb, 0xff, 0xff, 0x20, 0x0b, 0x00, 0x00,
  0x62, 0x05, 0x00, 0x00, 0x8c, 0x02, 0x00, 0x00, 0xa6, 0x09, 0x00, 0x00,
  0x15, 0x0b, 0x00, 0x00, 0x34, 0x26, 0x00, 0x00, 0xa0, 0xfc, 0xff, 0xff,
  0xe5, 0x02, 0x00, 0x00, 0xf3, 0x06, 0x00, 0x00, 0x8e, 0xff, 0xff, 0xff,
  0x04, 0x00, 0x00, 0x00, 0x64, 0x00, 0x00, 0x00, 0xe5, 0x0c, 0x14, 0x06,
  0x05, 0x10, 0xf4, 0x13, 0x1b, 0x1c, 0x0e, 0x03, 0x18, 0x20, 0xf4, 0xf4,
  0x15, 0xff, 0x06, 0x08, 0xf1, 0x23, 0xe6, 0xea, 0xca, 0x0f, 0x02, 0x36,
  0x00, 0x0e, 0xe2, 0xfd, 0x20, 0x02, 0xec, 0xf9, 0x18, 0xed, 0x0d, 0x90,
  0xea, 0xfe, 0x23, 0x22, 0x05, 0x06, 0xad, 0xff, 0x13, 0x1f, 0x02, 0x0e,
  0x20, 0xd8, 0x26, 0xf0, 0x31, 0xd1, 0x03, 0xdf, 0x1c, 0x12, 0x81, 0xe3,
  0x0b, 0x24, 0x0b, 0x14, 0x1f, 0x37, 0x1f, 0x0b, 0xf7, 0x0e, 0x1a, 0xe2,
  0xfe, 0x01, 0x10, 0xf2, 0x22, 0x16, 0x0f, 0x1f, 0x37, 0x2e, 0x16, 0xfe,
  0x02, 0x01, 0xe1, 0x1b, 0x01, 0xf1, 0x08, 0x24, 0xee, 0xf8, 0x00, 0x17,
  0x00, 0x00, 0x06, 0x00, 0x08, 0x00, 0x04, 0x00, 0x06, 0x00, 0x00, 0x00,
  0x04, 0x00, 0x00, 0x00, 0x08, 0x00, 0x00, 0x00, 0x06, 0x03, 0x00, 0x00,
  0xe2, 0x05, 0x00, 0x00, 0xb4, 0xf6, 0xff, 0xff, 0xb8, 0xf6, 0xff, 0xff,
  0x0f, 0x00, 0x00, 0x00, 0x4d, 0x4c, 0x49, 0x52, 0x20, 0x43, 0x6f, 0x6e,
  0x76, 0x65, 0x72, 0x74, 0x65, 0x64, 0x2e, 0x00, 0x01, 0x00, 0x00, 0x00,
  0x14, 0x00, 0x00, 0x00, 0x00, 0x00, 0x0e, 0x00, 0x18, 0x00, 0x14, 0x00,
  0x10, 0x00, 0x0c, 0x00, 0x08, 0x00, 0x04, 0x00, 0x0e, 0x00, 0x00, 0x00,
  0x14, 0x00, 0x00, 0x00, 0x1c, 0x00, 0x00, 0x00, 0x7c, 0x01, 0x00, 0x00,
  0x80, 0x01, 0x00, 0x00, 0x84, 0x01, 0x00, 0x00, 0x04, 0x00, 0x00, 0x00,
  0x6d, 0x61, 0x69, 0x6e, 0x00, 0x00, 0x00, 0x00, 0x06, 0x00, 0x00, 0x00,
  0x44, 0x01, 0x00, 0x00, 0xf4, 0x00, 0x00, 0x00, 0xa8, 0x00, 0x00, 0x00,
  0x6c, 0x00, 0x00, 0x00, 0x34, 0x00, 0x00, 0x00, 0x10, 0x00, 0x00, 0x00,
  0x00, 0x00, 0x0a, 0x00, 0x10, 0x00, 0x0c, 0x00, 0x08, 0x00, 0x04, 0x00,
  0x0a, 0x00, 0x00, 0x00, 0x0c, 0x00, 0x00, 0x00, 0x10, 0x00, 0x00, 0x00,
  0x02, 0x00, 0x00, 0x00, 0x01, 0x00, 0x00, 0x00, 0x0e, 0x00, 0x00, 0x00,
  0x01, 0x00, 0x00, 0x00, 0x0d, 0x00, 0x00, 0x00, 0x5a, 0xff, 0xff, 0xff,
  0x14, 0x00, 0x00, 0x00, 0x00, 0x00, 0x00, 0x08, 0x10, 0x00, 0x00, 0x00,
  0x14, 0x00, 0x00, 0x00, 0x01, 0x00, 0x00, 0x00, 0x6c, 0xf7, 0xff, 0xff,
  0x01, 0x00, 0x00, 0x00, 0x0d, 0x00, 0x00, 0x00, 0x03, 0x00, 0x00, 0x00,
  0x0c, 0x00, 0x00, 0x00, 0x02, 0x00, 0x00, 0x00, 0x01, 0x00, 0x00, 0x00,
  0x8e, 0xff, 0xff, 0xff, 0x14, 0x00, 0x00, 0x00, 0x00, 0x00, 0x00, 0x08,
  0x14, 0x00, 0x00, 0x00, 0x18, 0x00, 0x00, 0x00, 0x01, 0x00, 0x00, 0x00,
  0x7e, 0xff, 0xff, 0xff, 0x00, 0x00, 0x00, 0x01, 0x01, 0x00, 0x00, 0x00,
  0x0c, 0x00, 0x00, 0x00, 0x03, 0x00, 0x00, 0x00, 0x0b, 0x00, 0x00, 0x00,
  0x04, 0x00, 0x00, 0x00, 0x03, 0x00, 0x00, 0x00, 0xc6, 0xff, 0xff, 0xff,
  0x14, 0x00, 0x00, 0x00, 0x00, 0x00, 0x00, 0x08, 0x14, 0x00, 0x00, 0x00,
  0x18, 0x00, 0x00, 0x00, 0x01, 0x00, 0x00, 0x00, 0xb6, 0xff, 0xff, 0xff,
  0x00, 0x00, 0x00, 0x01, 0x01, 0x00, 0x00, 0x00, 0x0b, 0x00, 0x00, 0x00,
  0x03, 0x00, 0x00, 0x00, 0x0a, 0x00, 0x00, 0x00, 0x06, 0x00, 0x00, 0x00,
  0x05, 0x00, 0x00, 0x00, 0x00, 0x00, 0x0e, 0x00, 0x1a, 0x00, 0x14, 0x00,
  0x10, 0x00, 0x0c, 0x00, 0x0b, 0x00, 0x04, 0x00, 0x0e, 0x00, 0x00, 0x00,
  0x1c, 0x00, 0x00, 0x00, 0x00, 0x00, 0x00, 0x08, 0x1c, 0x00, 0x00, 0x00,
  0x20, 0x00, 0x00, 0x00, 0x01, 0x00, 0x00, 0x00, 0x00, 0x00, 0x06, 0x00,
  0x08, 0x00, 0x07, 0x00, 0x06, 0x00, 0x00, 0x00, 0x00, 0x00, 0x00, 0x01,
  0x01, 0x00, 0x00, 0x00, 0x0a, 0x00, 0x00, 0x00, 0x03, 0x00, 0x00, 0x00,
  0x09, 0x00, 0x00, 0x00, 0x08, 0x00, 0x00, 0x00, 0x07, 0x00, 0x00, 0x00,
  0x00, 0x00, 0x0a, 0x00, 0x0c, 0x00, 0x00, 0x00, 0x08, 0x00, 0x04, 0x00,
  0x0a, 0x00, 0x00, 0x00, 0x08, 0x00, 0x00, 0x00, 0x0c, 0x00, 0x00, 0x00,
  0x01, 0x00, 0x00, 0x00, 0x09, 0x00, 0x00, 0x00, 0x01, 0x00, 0x00, 0x00,
  0x00, 0x00, 0x00, 0x00, 0x01, 0x00, 0x00, 0x00, 0x0e, 0x00, 0x00, 0x00,
  0x01, 0x00, 0x00, 0x00, 0x00, 0x00, 0x00, 0x00, 0x0f, 0x00, 0x00, 0x00,
  0x54, 0x07, 0x00, 0x00, 0xb4, 0x06, 0x00, 0x00, 0x2c, 0x06, 0x00, 0x00,
  0xb0, 0x05, 0x00, 0x00, 0x44, 0x05, 0x00, 0x00, 0xc8, 0x04, 0x00, 0x00,
  0x5c, 0x04, 0x00, 0x00, 0xe8, 0x03, 0x00, 0x00, 0x7c, 0x03, 0x00, 0x00,
  0x08, 0x03, 0x00, 0x00, 0x44, 0x02, 0x00, 0x00, 0x90, 0x01, 0x00, 0x00,
  0xdc, 0x00, 0x00, 0x00, 0x60, 0x00, 0x00, 0x00, 0x04, 0x00, 0x00, 0x00,
  0xfe, 0xf8, 0xff, 0xff, 0x00, 0x00, 0x00, 0x01, 0x14, 0x00, 0x00, 0x00,
  0x1c, 0x00, 0x00, 0x00, 0x1c, 0x00, 0x00, 0x00, 0x0f, 0x00, 0x00, 0x00,
  0x34, 0x00, 0x00, 0x00, 0x02, 0x00, 0x00, 0x00, 0xff, 0xff, 0xff, 0xff,
  0x02, 0x00, 0x00, 0x00, 0xe8, 0xf8, 0xff, 0xff, 0x19, 0x00, 0x00, 0x00,
  0x53, 0x74, 0x61, 0x74, 0x65, 0x66, 0x75, 0x6c, 0x50, 0x61, 0x72, 0x74,
  0x69, 0x74, 0x69, 0x6f, 0x6e, 0x65, 0x64, 0x43, 0x61, 0x6c, 0x6c, 0x3a,
  0x30, 0x00, 0x00, 0x00, 0x02, 0x00, 0x00, 0x00, 0x01, 0x00, 0x00, 0x00,
  0x02, 0x00, 0x00, 0x00, 0x7e, 0xfd, 0xff, 0xff, 0x00, 0x00, 0x00, 0x01,
  0x18, 0x00, 0x00, 0x00, 0x20, 0x00, 0x00, 0x00, 0x3c, 0x00, 0x00, 0x00,
  0x0e, 0x00, 0x00, 0x00, 0x00, 0x00, 0x00, 0x09, 0x50, 0x00, 0x00, 0x00,
  0x02, 0x00, 0x00, 0x00, 0xff, 0xff, 0xff, 0xff, 0x02, 0x00, 0x00, 0x00,
  0xec, 0xf9, 0xff, 0xff, 0x08, 0x00, 0x00, 0x00, 0x10, 0x00, 0x00, 0x00,
  0x01, 0x00, 0x00, 0x00, 0x81, 0xff, 0xff, 0xff, 0xff, 0xff, 0xff, 0xff,
  0x01, 0x00, 0x00, 0x00, 0x10, 0x19, 0x4b, 0x3c, 0x1a, 0x00, 0x00, 0x00,
  0x53, 0x74, 0x61, 0x74, 0x65, 0x66, 0x75, 0x6c, 0x50, 0x61, 0x72, 0x74,
  0x69, 0x74, 0x69, 0x6f, 0x6e, 0x65, 0x64, 0x43, 0x61, 0x6c, 0x6c, 0x3a,
  0x30, 0x31, 0x00, 0x00, 0x02, 0x00, 0x00, 0x00, 0x01, 0x00, 0x00, 0x00,
  0x02, 0x00, 0x00, 0x00, 0xf6, 0xfd, 0xff, 0xff, 0x00, 0x00, 0x00, 0x01,
  0x18, 0x00, 0x00, 0x00, 0x20, 0x00, 0x00, 0x00, 0x40, 0x00, 0x00, 0x00,
  0x0d, 0x00, 0x00, 0x00, 0x00, 0x00, 0x00, 0x09, 0x88, 0x00, 0x00, 0x00,
  0x02, 0x00, 0x00, 0x00, 0xff, 0xff, 0xff, 0xff, 0x32, 0x00, 0x00, 0x00,
  0x64, 0xfa, 0xff, 0xff, 0x08, 0x00, 0x00, 0x00, 0x14, 0x00, 0x00, 0x00,
  0x01, 0x00, 0x00, 0x00, 0x80, 0xff, 0xff, 0xff, 0xff, 0xff, 0xff, 0xff,
  0x00, 0x00, 0x00, 0x00, 0x01, 0x00, 0x00, 0x00, 0x04, 0xdc, 0xcd, 0x3b,
  0x4c, 0x00, 0x00, 0x00, 0x73, 0x65, 0x71, 0x75, 0x65, 0x6e, 0x74, 0x69,
  0x61, 0x6c, 0x2f, 0x64, 0x65, 0x6e, 0x73, 0x65, 0x5f, 0x32, 0x2f, 0x4d,
  0x61, 0x74, 0x4d, 0x75, 0x6c, 0x3b, 0x73, 0x65, 0x71, 0x75, 0x65, 0x6e,
  0x74, 0x69, 0x61, 0x6c, 0x2f, 0x64, 0x65, 0x6e, 0x73, 0x65, 0x5f, 0x32,
  0x2f, 0x52, 0x65, 0x6c, 0x75, 0x3b, 0x73, 0x65, 0x71, 0x75, 0x65, 0x6e,
  0x74, 0x69, 0x61, 0x6c, 0x2f, 0x64, 0x65, 0x6e, 0x73, 0x65, 0x5f, 0x32,
  0x2f, 0x42, 0x69, 0x61, 0x73, 0x41, 0x64, 0x64, 0x00, 0x00, 0x00, 0x00,
  0x02, 0x00, 0x00, 0x00, 0x01, 0x00, 0x00, 0x00, 0x32, 0x00, 0x00, 0x00,
  0xa6, 0xfe, 0xff, 0xff, 0x00, 0x00, 0x00, 0x01, 0x18, 0x00, 0x00, 0x00,
  0x20, 0x00, 0x00, 0x00, 0x40, 0x00, 0x00, 0x00, 0x0c, 0x00, 0x00, 0x00,
  0x00, 0x00, 0x00, 0x09, 0x88, 0x00, 0x00, 0x00, 0x02, 0x00, 0x00, 0x00,
  0xff, 0xff, 0xff, 0xff, 0x1e, 0x00, 0x00, 0x00, 0x14, 0xfb, 0xff, 0xff,
  0x08, 0x00, 0x00, 0x00, 0x14, 0x00, 0x00, 0x00, 0x01, 0x00, 0x00, 0x00,
  0x80, 0xff, 0xff, 0xff, 0xff, 0xff, 0xff, 0xff, 0x00, 0x00, 0x00, 0x00,
  0x01, 0x00, 0x00, 0x00, 0xff, 0x1a, 0x8d, 0x3b, 0x4c, 0x00, 0x00, 0x00,
  0x73, 0x65, 0x71, 0x75, 0x65, 0x6e, 0x74, 0x69, 0x61, 0x6c, 0x2f, 0x64,
  0x65, 0x6e, 0x73, 0x65, 0x5f, 0x31, 0x2f, 0x4d, 0x61, 0x74, 0x4d, 0x75,
  0x6c, 0x3b, 0x73, 0x65, 0x71, 0x75, 0x65, 0x6e, 0x74, 0x69, 0x61, 0x6c,
  0x2f, 0x64, 0x65, 0x6e, 0x73, 0x65, 0x5f, 0x31, 0x2f, 0x52, 0x65, 0x6c,
  0x75, 0x3b, 0x73, 0x65, 0x71, 0x75, 0x65, 0x6e, 0x74, 0x69, 0x61, 0x6c,
  0x2f, 0x64, 0x65, 0x6e, 0x73, 0x65, 0x5f, 0x31, 0x2f, 0x42, 0x69, 0x61,
  0x73, 0x41, 0x64, 0x64, 0x00, 0x00, 0x00, 0x00, 0x02, 0x00, 0x00, 0x00,
  0x01, 0x00, 0x00, 0x00, 0x1e, 0x00, 0x00, 0x00, 0x56, 0xff, 0xff, 0xff,
  0x00, 0x00, 0x00, 0x01, 0x18, 0x00, 0x00, 0x00, 0x20, 0x00, 0x00, 0x00,
  0x40, 0x00, 0x00, 0x00, 0x0b, 0x00, 0x00, 0x00, 0x00, 0x00, 0x00, 0x09,
  0x80, 0x00, 0x00, 0x00, 0x02, 0x00, 0x00, 0x00, 0xff, 0xff, 0xff, 0xff,
  0x0a, 0x00, 0x00, 0x00, 0xc4, 0xfb, 0xff, 0xff, 0x08, 0x00, 0x00, 0x00,
  0x14, 0x00, 0x00, 0x00, 0x01, 0x00, 0x00, 0x00, 0x80, 0xff, 0xff, 0xff,
  0xff, 0xff, 0xff, 0xff, 0x00, 0x00, 0x00, 0x00, 0x01, 0x00, 0x00, 0x00,
  0x9f, 0x9d, 0xbe, 0x3b, 0x46, 0x00, 0x00, 0x00, 0x73, 0x65, 0x71, 0x75,
  0x65, 0x6e, 0x74, 0x69, 0x61, 0x6c, 0x2f, 0x64, 0x65, 0x6e, 0x73, 0x65,
  0x2f, 0x4d, 0x61, 0x74, 0x4d, 0x75, 0x6c, 0x3b, 0x73, 0x65, 0x71, 0x75,
  0x65, 0x6e, 0x74, 0x69, 0x61, 0x6c, 0x2f, 0x64, 0x65, 0x6e, 0x73, 0x65,
  0x2f, 0x52, 0x65, 0x6c, 0x75, 0x3b, 0x73, 0x65, 0x71, 0x75, 0x65, 0x6e,
  0x74, 0x69, 0x61, 0x6c, 0x2f, 0x64, 0x65, 0x6e, 0x73, 0x65, 0x2f, 0x42,
  0x69, 0x61, 0x73, 0x41, 0x64, 0x64, 0x00, 0x00, 0x02, 0x00, 0x00, 0x00,
  0x01, 0x00, 0x00, 0x00, 0x0a, 0x00, 0x00, 0x00, 0x00, 0x00, 0x16, 0x00,
  0x20, 0x00, 0x1c, 0x00, 0x1b, 0x00, 0x14, 0x00, 0x10, 0x00, 0x0c, 0x00,
  0x00, 0x00, 0x00, 0x00, 0x08, 0x00, 0x07, 0x00, 0x16, 0x00, 0x00, 0x00,
  0x00, 0x00, 0x00, 0x01, 0x18, 0x00, 0x00, 0x00, 0x20, 0x00, 0x00, 0x00,
  0x40, 0x00, 0x00, 0x00, 0x0a, 0x00, 0x00, 0x00, 0x00, 0x00, 0x00, 0x09,
  0x48, 0x00, 0x00, 0x00, 0x02, 0x00, 0x00, 0x00, 0xff, 0xff, 0xff, 0xff,
  0x03, 0x00, 0x00, 0x00, 0x84, 0xfc, 0xff, 0xff, 0x08, 0x00, 0x00, 0x00,
  0x14, 0x00, 0x00, 0x00, 0x01, 0x00, 0x00, 0x00, 0xf8, 0xff, 0xff, 0xff,
  0xff, 0xff, 0xff, 0xff, 0x00, 0x00, 0x00, 0x00, 0x01, 0x00, 0x00, 0x00,
  0x38, 0x54, 0x71, 0x3c, 0x0c, 0x00, 0x00, 0x00, 0x74, 0x66, 0x6c, 0x2e,
  0x71, 0x75, 0x61, 0x6e, 0x74, 0x69, 0x7a, 0x65, 0x00, 0x00, 0x00, 0x00,
  0x02, 0x00, 0x00, 0x00, 0x01, 0x00, 0x00, 0x00, 0x03, 0x00, 0x00, 0x00,
  0xfa, 0xfc, 0xff, 0xff, 0x00, 0x00, 0x00, 0x01, 0x14, 0x00, 0x00, 0x00,
  0x34, 0x00, 0x00, 0x00, 0x09, 0x00, 0x00, 0x00, 0x00, 0x00, 0x00, 0x09,
  0x44, 0x00, 0x00, 0x00, 0xe4, 0xfc, 0xff, 0xff, 0x08, 0x00, 0x00, 0x00,
  0x14, 0x00, 0x00, 0x00, 0x01, 0x00, 0x00, 0x00, 0x00, 0x00, 0x00, 0x00,
  0x00, 0x00, 0x00, 0x00, 0x00, 0x00, 0x00, 0x00, 0x01, 0x00, 0x00, 0x00,
  0x95, 0x0b, 0xd7, 0x3b, 0x17, 0x00, 0x00, 0x00, 0x73, 0x65, 0x71, 0x75,
  0x65, 0x6e, 0x74, 0x69, 0x61, 0x6c, 0x2f, 0x64, 0x65, 0x6e, 0x73, 0x65,
  0x2f, 0x4d, 0x61, 0x74, 0x4d, 0x75, 0x6c, 0x00, 0x02, 0x00, 0x00, 0x00,
  0x0a, 0x00, 0x00, 0x00, 0x03, 0x00, 0x00, 0x00, 0x62, 0xfd, 0xff, 0xff,
  0x00, 0x00, 0x00, 0x01, 0x14, 0x00, 0x00, 0x00, 0x30, 0x00, 0x00, 0x00,
  0x08, 0x00, 0x00, 0x00, 0x00, 0x00, 0x00, 0x02, 0x50, 0x00, 0x00, 0x00,
  0x4c, 0xfd, 0xff, 0xff, 0x08, 0x00, 0x00, 0x00, 0x10, 0x00, 0x00, 0x00,
  0x01, 0x00, 0x00, 0x00, 0x00, 0x00, 0x00, 0x00, 0x00, 0x00, 0x00, 0x00,
  0x01, 0x00, 0x00, 0x00, 0xa6, 0xb8, 0xca, 0x38, 0x27, 0x00, 0x00, 0x00,
  0x73, 0x65, 0x71, 0x75, 0x65, 0x6e, 0x74, 0x69, 0x61, 0x6c, 0x2f, 0x64,
  0x65, 0x6e, 0x73, 0x65, 0x2f, 0x42, 0x69, 0x61, 0x73, 0x41, 0x64, 0x64,
  0x2f, 0x52, 0x65, 0x61, 0x64, 0x56, 0x61, 0x72, 0x69, 0x61, 0x62, 0x6c,
  0x65, 0x4f, 0x70, 0x00, 0x01, 0x00, 0x00, 0x00, 0x0a, 0x00, 0x00, 0x00,
  0xd2, 0xfd, 0xff, 0xff, 0x00, 0x00, 0x00, 0x01, 0x14, 0x00, 0x00, 0x00,
  0x30, 0x00, 0x00, 0x00, 0x07, 0x00, 0x00, 0x00, 0x00, 0x00, 0x00, 0x09,
  0x44, 0x00, 0x00, 0x00, 0xbc, 0xfd, 0xff, 0xff, 0x08, 0x00, 0x00, 0x00,
  0x10, 0x00, 0x00, 0x00, 0x01, 0x00, 0x00, 0x00, 0x00, 0x00, 0x00, 0x00,
  0x00, 0x00, 0x00, 0x00, 0x01, 0x00, 0x00, 0x00, 0x3f, 0xd9, 0xaa, 0x3b,
  0x19, 0x00, 0x00, 0x00, 0x73, 0x65, 0x71, 0x75, 0x65, 0x6e, 0x74, 0x69,
  0x61, 0x6c, 0x2f, 0x64, 0x65, 0x6e, 0x73, 0x65, 0x5f, 0x31, 0x2f, 0x4d,
  0x61, 0x74, 0x4d, 0x75, 0x6c, 0x00, 0x00, 0x00, 0x02, 0x00, 0x00, 0x00,
  0x1e, 0x00, 0x00, 0x00, 0x0a, 0x00, 0x00, 0x00, 0x3a, 0xfe, 0xff, 0xff,
  0x00, 0x00, 0x00, 0x01, 0x14, 0x00, 0x00, 0x00, 0x34, 0x00, 0x00, 0x00,
  0x06, 0x00, 0x00, 0x00, 0x00, 0x00, 0x00, 0x02, 0x58, 0x00, 0x00, 0x00,
  0x24, 0xfe, 0xff, 0xff, 0x08, 0x00, 0x00, 0x00, 0x14, 0x00, 0x00, 0x00,
  0x01, 0x00, 0x00, 0x00, 0x00, 0x00, 0x00, 0x00, 0x00, 0x00, 0x00, 0x00,
  0x00, 0x00, 0x00, 0x00, 0x01, 0x00, 0x00, 0x00, 0xdc, 0x6c, 0xfe, 0x37,
  0x29, 0x00, 0x00, 0x00, 0x73, 0x65, 0x71, 0x75, 0x65, 0x6e, 0x74, 0x69,
  0x61, 0x6c, 0x2f, 0x64, 0x65, 0x6e, 0x73, 0x65, 0x5f, 0x31, 0x2f, 0x42,
  0x69, 0x61, 0x73, 0x41, 0x64, 0x64, 0x2f, 0x52, 0x65, 0x61, 0x64, 0x56,
  0x61, 0x72, 0x69, 0x61, 0x62, 0x6c, 0x65, 0x4f, 0x70, 0x00, 0x00, 0x00,
  0x01, 0x00, 0x00, 0x00, 0x1e, 0x00, 0x00, 0x00, 0xb2, 0xfe, 0xff, 0xff,
  0x00, 0x00, 0x00, 0x01, 0x14, 0x00, 0x00, 0x00, 0x30, 0x00, 0x00, 0x00,
  0x05, 0x00, 0x00, 0x00, 0x00, 0x00, 0x00, 0x09, 0x44, 0x00, 0x00, 0x00,
  0x9c, 0xfe, 0xff, 0xff, 0x08, 0x00, 0x00, 0x00, 0x10, 0x00, 0x00, 0x00,
  0x01, 0x00, 0x00, 0x00, 0x00, 0x00, 0x00, 0x00, 0x00, 0x00, 0x00, 0x00,
  0x01, 0x00, 0x00, 0x00, 0xdd, 0x93, 0x0f, 0x3c, 0x19, 0x00, 0x00, 0x00,
  0x73, 0x65, 0x71, 0x75, 0x65, 0x6e, 0x74, 0x69, 0x61, 0x6c, 0x2f, 0x64,
  0x65, 0x6e, 0x73, 0x65, 0x5f, 0x32, 0x2f, 0x4d, 0x61, 0x74, 0x4d, 0x75,
  0x6c, 0x00, 0x00, 0x00, 0x02, 0x00, 0x00, 0x00, 0x32, 0x00, 0x00, 0x00,
  0x1e, 0x00, 0x00, 0x00, 0x1a, 0xff, 0xff, 0xff, 0x00, 0x00, 0x00, 0x01,
  0x14, 0x00, 0x00, 0x00, 0x34, 0x00, 0x00, 0x00, 0x04, 0x00, 0x00, 0x00,
  0x00, 0x00, 0x00, 0x02, 0x58, 0x00, 0x00, 0x00, 0x04, 0xff, 0xff, 0xff,
  0x08, 0x00, 0x00, 0x00, 0x14, 0x00, 0x00, 0x00, 0x01, 0x00, 0x00, 0x00,
  0x00, 0x00, 0x00, 0x00, 0x00, 0x00, 0x00, 0x00, 0x00, 0x00, 0x00, 0x00,
  0x01, 0x00, 0x00, 0x00, 0x2a, 0x47, 0x1e, 0x38, 0x29, 0x00, 0x00, 0x00,
  0x73, 0x65, 0x71, 0x75, 0x65, 0x6e, 0x74, 0x69, 0x61, 0x6c, 0x2f, 0x64,
  0x65, 0x6e, 0x73, 0x65, 0x5f, 0x32, 0x2f, 0x42, 0x69, 0x61, 0x73, 0x41,
  0x64, 0x64, 0x2f, 0x52, 0x65, 0x61, 0x64, 0x56, 0x61, 0x72, 0x69, 0x61,
  0x62, 0x6c, 0x65, 0x4f, 0x70, 0x00, 0x00, 0x00, 0x01, 0x00, 0x00, 0x00,
  0x32, 0x00, 0x00, 0x00, 0x92, 0xff, 0xff, 0xff, 0x00, 0x00, 0x00, 0x01,
  0x14, 0x00, 0x00, 0x00, 0x34, 0x00, 0x00, 0x00, 0x03, 0x00, 0x00, 0x00,
  0x00, 0x00, 0x00, 0x09, 0x48, 0x00, 0x00, 0x00, 0x7c, 0xff, 0xff, 0xff,
  0x08, 0x00, 0x00, 0x00, 0x14, 0x00, 0x00, 0x00, 0x01, 0x00, 0x00, 0x00,
  0x00, 0x00, 0x00, 0x00, 0x00, 0x00, 0x00, 0x00, 0x00, 0x00, 0x00, 0x00,
  0x01, 0x00, 0x00, 0x00, 0xaa, 0x62, 0x23, 0x3c, 0x19, 0x00, 0x00, 0x00,
  0x73, 0x65, 0x71, 0x75, 0x65, 0x6e, 0x74, 0x69, 0x61, 0x6c, 0x2f, 0x64,
  0x65, 0x6e, 0x73, 0x65, 0x5f, 0x33, 0x2f, 0x4d, 0x61, 0x74, 0x4d, 0x75,
  0x6c, 0x00, 0x00, 0x00, 0x02, 0x00, 0x00, 0x00, 0x02, 0x00, 0x00, 0x00,
  0x32, 0x00, 0x00, 0x00, 0x00, 0x00, 0x16, 0x00, 0x1c, 0x00, 0x18, 0x00,
  0x17, 0x00, 0x10, 0x00, 0x0c, 0x00, 0x08, 0x00, 0x00, 0x00, 0x00, 0x00,
  0x00, 0x00, 0x07, 0x00, 0x16, 0x00, 0x00, 0x00, 0x00, 0x00, 0x00, 0x01,
  0x20, 0x00, 0x00, 0x00, 0x40, 0x00, 0x00, 0x00, 0x02, 0x00, 0x00, 0x00,
  0x00, 0x00, 0x00, 0x02, 0x64, 0x00, 0x00, 0x00, 0x0c, 0x00, 0x0c, 0x00,
  0x00, 0x00, 0x00, 0x00, 0x08, 0x00, 0x04, 0x00, 0x0c, 0x00, 0x00, 0x00,
  0x08, 0x00, 0x00, 0x00, 0x14, 0x00, 0x00, 0x00, 0x01, 0x00, 0x00, 0x00,
  0x00, 0x00, 0x00, 0x00, 0x00, 0x00, 0x00, 0x00, 0x00, 0x00, 0x00, 0x00,
  0x01, 0x00, 0x00, 0x00, 0x6d, 0x62, 0x83, 0x38, 0x29, 0x00, 0x00, 0x00,
  0x73, 0x65, 0x71, 0x75, 0x65, 0x6e, 0x74, 0x69, 0x61, 0x6c, 0x2f, 0x64,
  0x65, 0x6e, 0x73, 0x65, 0x5f, 0x33, 0x2f, 0x42, 0x69, 0x61, 0x73, 0x41,
  0x64, 0x64, 0x2f, 0x52, 0x65, 0x61, 0x64, 0x56, 0x61, 0x72, 0x69, 0x61,
  0x62, 0x6c, 0x65, 0x4f, 0x70, 0x00, 0x00, 0x00, 0x01, 0x00, 0x00, 0x00,
  0x02, 0x00, 0x00, 0x00, 0x00, 0x00, 0x16, 0x00, 0x1c, 0x00, 0x18, 0x00,
  0x00, 0x00, 0x14, 0x00, 0x10, 0x00, 0x0c, 0x00, 0x00, 0x00, 0x00, 0x00,
  0x08, 0x00, 0x07, 0x00, 0x16, 0x00, 0x00, 0x00, 0x00, 0x00, 0x00, 0x01,
  0x14, 0x00, 0x00, 0x00, 0x20, 0x00, 0x00, 0x00, 0x20, 0x00, 0x00, 0x00,
  0x01, 0x00, 0x00, 0x00, 0x3c, 0x00, 0x00, 0x00, 0x02, 0x00, 0x00, 0x00,
  0xff, 0xff, 0xff, 0xff, 0x03, 0x00, 0x00, 0x00, 0x04, 0x00, 0x04, 0x00,
  0x04, 0x00, 0x00, 0x00, 0x1d, 0x00, 0x00, 0x00, 0x73, 0x65, 0x72, 0x76,
  0x69, 0x6e, 0x67, 0x5f, 0x64, 0x65, 0x66, 0x61, 0x75, 0x6c, 0x74, 0x5f,
  0x64, 0x65, 0x6e, 0x73, 0x65, 0x5f, 0x69, 0x6e, 0x70, 0x75, 0x74, 0x3a,
  0x30, 0x00, 0x00, 0x00, 0x02, 0x00, 0x00, 0x00, 0x01, 0x00, 0x00, 0x00,
  0x03, 0x00, 0x00, 0x00, 0x03, 0x00, 0x00, 0x00, 0x44, 0x00, 0x00, 0x00,
  0x24, 0x00, 0x00, 0x00, 0x04, 0x00, 0x00, 0x00, 0xf0, 0xff, 0xff, 0xff,
  0x06, 0x00, 0x00, 0x00, 0x02, 0x00, 0x00, 0x00, 0x00, 0x00, 0x00, 0x06,
  0x0c, 0x00, 0x10, 0x00, 0x0f, 0x00, 0x00, 0x00, 0x08, 0x00, 0x04, 0x00,
  0x0c, 0x00, 0x00, 0x00, 0x09, 0x00, 0x00, 0x00, 0x04, 0x00, 0x00, 0x00,
  0x00, 0x00, 0x00, 0x09, 0x0c, 0x00, 0x0c, 0x00, 0x0b, 0x00, 0x00, 0x00,
  0x00, 0x00, 0x04, 0x00, 0x0c, 0x00, 0x00, 0x00, 0x72, 0x00, 0x00, 0x00,
  0x00, 0x00, 0x00, 0x72
};
unsigned int invkine_model = 5416;
