
#ifdef __has_attribute
#define HAVE_ATTRIBUTE(x) __has_attribute(x)
#else
#define HAVE_ATTRIBUTE(x) 0
#endif
#if HAVE_ATTRIBUTE(aligned) || (defined(__GNUC__) && !defined(__clang__))
#define DATA_ALIGN_ATTRIBUTE __attribute__((aligned(4)))
#else
#define DATA_ALIGN_ATTRIBUTE
#endif

const unsigned char invkine_model[] DATA_ALIGN_ATTRIBUTE = {
	0x20, 0x00, 0x00, 0x00, 0x54, 0x46, 0x4c, 0x33, 0x00, 0x00, 0x00, 0x00, 
	0x14, 0x00, 0x20, 0x00, 0x1c, 0x00, 0x18, 0x00, 0x14, 0x00, 0x10, 0x00, 
	0x0c, 0x00, 0x00, 0x00, 0x08, 0x00, 0x04, 0x00, 0x14, 0x00, 0x00, 0x00, 
	0x1c, 0x00, 0x00, 0x00, 0x90, 0x00, 0x00, 0x00, 0xe8, 0x00, 0x00, 0x00, 
	0xd0, 0x20, 0x00, 0x00, 0xe0, 0x20, 0x00, 0x00, 0x94, 0x27, 0x00, 0x00, 
	0x03, 0x00, 0x00, 0x00, 0x01, 0x00, 0x00, 0x00, 0x10, 0x00, 0x00, 0x00, 
	0x00, 0x00, 0x0a, 0x00, 0x10, 0x00, 0x0c, 0x00, 0x08, 0x00, 0x04, 0x00, 
	0x0a, 0x00, 0x00, 0x00, 0x0c, 0x00, 0x00, 0x00, 0x1c, 0x00, 0x00, 0x00, 
	0x38, 0x00, 0x00, 0x00, 0x0f, 0x00, 0x00, 0x00, 0x73, 0x65, 0x72, 0x76, 
	0x69, 0x6e, 0x67, 0x5f, 0x64, 0x65, 0x66, 0x61, 0x75, 0x6c, 0x74, 0x00, 
	0x01, 0x00, 0x00, 0x00, 0x04, 0x00, 0x00, 0x00, 0x98, 0xff, 0xff, 0xff, 
	0x0c, 0x00, 0x00, 0x00, 0x04, 0x00, 0x00, 0x00, 0x07, 0x00, 0x00, 0x00, 
	0x64, 0x65, 0x6e, 0x73, 0x65, 0x5f, 0x33, 0x00, 0x01, 0x00, 0x00, 0x00, 
	0x04, 0x00, 0x00, 0x00, 0x3a, 0xe2, 0xff, 0xff, 0x04, 0x00, 0x00, 0x00, 
	0x0b, 0x00, 0x00, 0x00, 0x64, 0x65, 0x6e, 0x73, 0x65, 0x5f, 0x69, 0x6e, 
	0x70, 0x75, 0x74, 0x00, 0x02, 0x00, 0x00, 0x00, 0x34, 0x00, 0x00, 0x00, 
	0x04, 0x00, 0x00, 0x00, 0xdc, 0xff, 0xff, 0xff, 0x0f, 0x00, 0x00, 0x00, 
	0x04, 0x00, 0x00, 0x00, 0x13, 0x00, 0x00, 0x00, 0x43, 0x4f, 0x4e, 0x56, 
	0x45, 0x52, 0x53, 0x49, 0x4f, 0x4e, 0x5f, 0x4d, 0x45, 0x54, 0x41, 0x44, 
	0x41, 0x54, 0x41, 0x00, 0x08, 0x00, 0x0c, 0x00, 0x08, 0x00, 0x04, 0x00, 
	0x08, 0x00, 0x00, 0x00, 0x0e, 0x00, 0x00, 0x00, 0x04, 0x00, 0x00, 0x00, 
	0x13, 0x00, 0x00, 0x00, 0x6d, 0x69, 0x6e, 0x5f, 0x72, 0x75, 0x6e, 0x74, 
	0x69, 0x6d, 0x65, 0x5f, 0x76, 0x65, 0x72, 0x73, 0x69, 0x6f, 0x6e, 0x00, 
	0x10, 0x00, 0x00, 0x00, 0xe4, 0x1f, 0x00, 0x00, 0xdc, 0x1f, 0x00, 0x00, 
	0x4c, 0x1d, 0x00, 0x00, 0x94, 0x1c, 0x00, 0x00, 0x44, 0x1b, 0x00, 0x00, 
	0x2c, 0x1b, 0x00, 0x00, 0xcc, 0x1a, 0x00, 0x00, 0xcc, 0x19, 0x00, 0x00, 
	0x3c, 0x0d, 0x00, 0x00, 0xac, 0x00, 0x00, 0x00, 0xa4, 0x00, 0x00, 0x00, 
	0x9c, 0x00, 0x00, 0x00, 0x94, 0x00, 0x00, 0x00, 0x8c, 0x00, 0x00, 0x00, 
	0x6c, 0x00, 0x00, 0x00, 0x04, 0x00, 0x00, 0x00, 0xf2, 0xe2, 0xff, 0xff, 
	0x04, 0x00, 0x00, 0x00, 0x58, 0x00, 0x00, 0x00, 0x0c, 0x00, 0x00, 0x00, 
	0x08, 0x00, 0x0e, 0x00, 0x08, 0x00, 0x04, 0x00, 0x08, 0x00, 0x00, 0x00, 
	0x10, 0x00, 0x00, 0x00, 0x28, 0x00, 0x00, 0x00, 0x00, 0x00, 0x06, 0x00, 
	0x08, 0x00, 0x04, 0x00, 0x06, 0x00, 0x00, 0x00, 0x04, 0x00, 0x00, 0x00, 
	0x01, 0x00, 0x00, 0x00, 0xea, 0x03, 0x00, 0x00, 0x00, 0x00, 0x0a, 0x00, 
	0x10, 0x00, 0x0c, 0x00, 0x08, 0x00, 0x04, 0x00, 0x0a, 0x00, 0x00, 0x00, 
	0x02, 0x00, 0x00, 0x00, 0x02, 0x00, 0x00, 0x00, 0x04, 0x00, 0x00, 0x00, 
	0x06, 0x00, 0x00, 0x00, 0x32, 0x2e, 0x31, 0x32, 0x2e, 0x30, 0x00, 0x00, 
	0x56, 0xe3, 0xff, 0xff, 0x04, 0x00, 0x00, 0x00, 0x10, 0x00, 0x00, 0x00, 
	0x32, 0x2e, 0x33, 0x2e, 0x30, 0x00, 0x00, 0x00, 0x00, 0x00, 0x00, 0x00, 
	0x00, 0x00, 0x00, 0x00, 0x44, 0xda, 0xff, 0xff, 0x48, 0xda, 0xff, 0xff, 
	0x4c, 0xda, 0xff, 0xff, 0x50, 0xda, 0xff, 0xff, 0x82, 0xe3, 0xff, 0xff, 
	0x04, 0x00, 0x00, 0x00, 0x80, 0x0c, 0x00, 0x00, 0x18, 0xeb, 0x16, 0x21, 
	0x08, 0x16, 0xf4, 0xf4, 0xf9, 0xd7, 0x0e, 0x21, 0xee, 0x1a, 0xe4, 0x34, 
	0x23, 0xfa, 0xec, 0xfe, 0xed, 0x23, 0x3e, 0x0b, 0x18, 0x25, 0x26, 0xe5, 
	0xea, 0x29, 0x0c, 0xe4, 0x13, 0x06, 0xf8, 0x1c, 0xeb, 0x05, 0x1d, 0x06, 
	0xf7, 0x08, 0xc4, 0xbb, 0xf9, 0x1b, 0xef, 0xfa, 0xef, 0x57, 0x07, 0xec, 
	0xda, 0x0d, 0x17, 0x3a, 0x2c, 0x2e, 0xfb, 0xe5, 0x02, 0xcf, 0xf9, 0x0c, 
	0xec, 0xd4, 0x08, 0x19, 0x02, 0x37, 0xe7, 0x1d, 0xde, 0xde, 0x14, 0x10, 
	0x0b, 0xce, 0xdb, 0xd9, 0xd3, 0xf6, 0x82, 0xf7, 0xfd, 0xf4, 0xe0, 0xe9, 
	0xca, 0x1c, 0xfc, 0x15, 0xde, 0xf0, 0xe6, 0x42, 0x06, 0xf9, 0x05, 0xdc, 
	0x1c, 0xe8, 0x06, 0x18, 0x0f, 0x08, 0x0f, 0x2b, 0x1f, 0x33, 0x09, 0x07, 
	0xe6, 0x0d, 0xfa, 0x15, 0xf2, 0xc4, 0xed, 0xfe, 0xec, 0xf2, 0x02, 0xf1, 
	0xf1, 0x0b, 0xe4, 0xf1, 0x23, 0x11, 0xf4, 0x03, 0x19, 0x1c, 0x17, 0xe5, 
	0x00, 0x13, 0xdd, 0x05, 0xdf, 0xe8, 0xff, 0x0c, 0xdc, 0x0e, 0xf0, 0xf8, 
	0xeb, 0xe2, 0xeb, 0x18, 0x04, 0x04, 0xe4, 0x11, 0xe7, 0x16, 0xfd, 0xdc, 
	0xda, 0x13, 0x9b, 0x0a, 0xff, 0x26, 0xe0, 0x18, 0x0d, 0x21, 0x1f, 0x0c, 
	0xf6, 0x30, 0xef, 0x35, 0x22, 0x24, 0xee, 0x06, 0xf2, 0xef, 0x0a, 0x02, 
	0x1f, 0xec, 0xf6, 0x21, 0x17, 0xff, 0xfa, 0x01, 0xe8, 0x14, 0xe6, 0x01, 
	0x04, 0x01, 0x0c, 0xf1, 0xe5, 0x10, 0x15, 0xf3, 0xe7, 0xfb, 0xf0, 0xdd, 
	0xdb, 0xf2, 0xe6, 0xf0, 0xde, 0xde, 0xfa, 0xe6, 0x18, 0xef, 0xe6, 0xe4, 
	0x07, 0xf9, 0x13, 0xe2, 0xfa, 0x03, 0x13, 0xe5, 0x22, 0xef, 0xdd, 0xe2, 
	0xe3, 0x20, 0xe3, 0xdd, 0xfa, 0xe9, 0xf3, 0xf4, 0xf0, 0x11, 0xf3, 0xe0, 
	0xfe, 0xe1, 0xea, 0xe6, 0xe9, 0xf9, 0x23, 0xed, 0xf5, 0xf3, 0x0c, 0xf7, 
	0x05, 0x24, 0x06, 0xfb, 0x16, 0x19, 0xe7, 0x09, 0xef, 0x13, 0x20, 0xf4, 
	0xe4, 0xef, 0xfc, 0xf2, 0xe1, 0xde, 0xe8, 0xec, 0xe6, 0xf2, 0xdd, 0x07, 
	0xe4, 0xf0, 0xeb, 0xe1, 0x22, 0x01, 0xfc, 0xf4, 0xe4, 0xfc, 0x21, 0xf8, 
	0xe7, 0xef, 0x25, 0x0c, 0xf6, 0xee, 0xe0, 0x1d, 0x13, 0xe4, 0xe0, 0xde, 
	0x05, 0x15, 0xdb, 0x03, 0xef, 0x19, 0x08, 0xe3, 0x10, 0x13, 0x0f, 0x09, 
	0xe4, 0x07, 0xf4, 0x0f, 0x05, 0x14, 0x8c, 0xd3, 0x1a, 0xf9, 0x17, 0xd8, 
	0xef, 0x3e, 0xe8, 0x23, 0xed, 0x1c, 0xfc, 0x35, 0x01, 0xff, 0xeb, 0xde, 
	0x0d, 0xe1, 0x17, 0x21, 0xfd, 0xda, 0xfc, 0x47, 0x02, 0x06, 0x0a, 0x02, 
	0x20, 0xf3, 0x1b, 0x12, 0x05, 0xed, 0xfc, 0xf0, 0xf8, 0xdd, 0x21, 0xfc, 
	0x1a, 0xfe, 0xef, 0x19, 0xec, 0x25, 0x1d, 0xde, 0x08, 0xe3, 0x0c, 0xfb, 
	0xdd, 0xde, 0x00, 0xe6, 0x12, 0x0e, 0x0a, 0x1c, 0x0d, 0x10, 0xed, 0x0c, 
	0x07, 0xdf, 0x10, 0xed, 0xfe, 0x00, 0xfb, 0xfd, 0x0c, 0xf2, 0xf2, 0xdf, 
	0x22, 0xf1, 0x61, 0x29, 0xf5, 0x1b, 0xe9, 0x1a, 0x05, 0xe4, 0xe2, 0x0f, 
	0x24, 0xe5, 0x18, 0x1a, 0xe1, 0x09, 0xe1, 0x16, 0xec, 0x04, 0x13, 0x1b, 
	0xeb, 0x29, 0xed, 0x02, 0x26, 0x13, 0x12, 0x0f, 0x1c, 0x29, 0x0a, 0x02, 
	0x1c, 0x08, 0xfb, 0x08, 0xd2, 0xf6, 0xd3, 0xcf, 0x12, 0x02, 0xfa, 0xed, 
	0x0c, 0x1a, 0x1a, 0x0d, 0xf7, 0x10, 0x17, 0xfc, 0xd7, 0xeb, 0x0c, 0xf7, 
	0x1f, 0x0c, 0x2a, 0x23, 0xe6, 0xfc, 0x0b, 0x2f, 0x16, 0x34, 0xf1, 0x10, 
	0xff, 0xeb, 0x1a, 0xf0, 0xe3, 0xda, 0xdc, 0xd0, 0xf1, 0x0c, 0x42, 0x22, 
	0xf9, 0x26, 0xf2, 0x0d, 0xf1, 0x01, 0xe4, 0xe4, 0x20, 0x16, 0xe3, 0xc3, 
	0x0c, 0x0d, 0x21, 0xe5, 0xf0, 0x2a, 0xc4, 0x11, 0x1d, 0x0e, 0xff, 0xba, 
	0x29, 0xea, 0x1b, 0x0a, 0x26, 0xf0, 0x22, 0x25, 0xf5, 0xe5, 0x23, 0xfe, 
	0x23, 0xf8, 0x62, 0x35, 0x1d, 0xf8, 0xeb, 0xf9, 0x0b, 0xef, 0x1d, 0x18, 
	0x01, 0x09, 0x1f, 0x0d, 0xe6, 0xff, 0xec, 0x02, 0x25, 0x11, 0x02, 0x03, 
	0x22, 0x22, 0x12, 0xc3, 0x1c, 0x25, 0x1c, 0x13, 0x1a, 0xf3, 0xf6, 0xfe, 
	0xfc, 0xdc, 0x1d, 0x05, 0xfa, 0x09, 0x36, 0x16, 0x03, 0xe6, 0xe7, 0xf8, 
	0x0d, 0x00, 0x0e, 0xf6, 0x20, 0xe7, 0xe7, 0x2b, 0x17, 0x24, 0xde, 0x0c, 
	0x0a, 0x13, 0x23, 0x18, 0x0f, 0xfb, 0x21, 0xf4, 0x17, 0x1e, 0x07, 0xec, 
	0x1c, 0xde, 0xf9, 0x04, 0xf0, 0xec, 0x09, 0xe4, 0xec, 0xf2, 0x51, 0x2e, 
	0x02, 0x2b, 0xec, 0xf5, 0x1e, 0xc8, 0xdb, 0x0e, 0xfa, 0xef, 0x16, 0x10, 
	0x1a, 0x12, 0xfc, 0x04, 0xea, 0x16, 0x22, 0xec, 0xea, 0x2a, 0x01, 0xd8, 
	0x28, 0x2d, 0xe8, 0x0e, 0xff, 0x21, 0x08, 0x0a, 0xe6, 0xe5, 0xe5, 0x05, 
	0xdc, 0x1d, 0xe2, 0xea, 0xde, 0x11, 0x00, 0x0a, 0xeb, 0xe4, 0xf7, 0x13, 
	0xdd, 0x12, 0xf8, 0xed, 0x00, 0x24, 0xdb, 0x10, 0xe5, 0x00, 0xe4, 0x12, 
	0xf4, 0xef, 0xef, 0xdd, 0xf4, 0xf8, 0x0d, 0x0f, 0xe7, 0xe3, 0xdc, 0xe2, 
	0xe3, 0x18, 0xe2, 0xf7, 0x0a, 0xf0, 0x9e, 0xdf, 0xe2, 0x02, 0x0b, 0xea, 
	0x1f, 0x40, 0x0a, 0xf0, 0x13, 0x0b, 0x04, 0x2d, 0xee, 0x27, 0xdb, 0x12, 
	0x00, 0x18, 0x1c, 0x04, 0x02, 0x09, 0xf5, 0x24, 0x02, 0x11, 0xdf, 0xe3, 
	0x00, 0xcc, 0x09, 0x09, 0xf7, 0xf5, 0xe8, 0xde, 0xec, 0xe1, 0xff, 0xf2, 
	0x01, 0x05, 0xe1, 0xea, 0xf7, 0xf5, 0xe0, 0xe0, 0x25, 0x15, 0xe3, 0xef, 
	0xe2, 0xec, 0x23, 0xe6, 0xf4, 0x0a, 0xee, 0xf0, 0xf3, 0x17, 0xf5, 0xf7, 
	0x15, 0x20, 0xf6, 0xff, 0x19, 0xe0, 0x14, 0xf7, 0xeb, 0x16, 0xff, 0xe0, 
	0xf5, 0x0d, 0x87, 0xd7, 0x1b, 0x0e, 0xda, 0xf8, 0x28, 0x20, 0x25, 0x09, 
	0xe5, 0x13, 0x21, 0x17, 0x25, 0xfe, 0x02, 0xed, 0xeb, 0xf9, 0xf3, 0x1f, 
	0xe0, 0xe4, 0xe6, 0x07, 0x14, 0x1c, 0x0a, 0x20, 0x05, 0x20, 0x0a, 0x21, 
	0x0f, 0xeb, 0x15, 0xf6, 0x16, 0xec, 0x17, 0x3e, 0x01, 0xe9, 0xe8, 0xe6, 
	0xed, 0xea, 0x25, 0xfa, 0xf7, 0x07, 0x0b, 0x1a, 0x0e, 0xfe, 0xf9, 0xf5, 
	0x21, 0x09, 0x09, 0x04, 0xe6, 0x01, 0x28, 0x11, 0x01, 0x2f, 0xe7, 0xdb, 
	0x1c, 0x08, 0x0f, 0xf6, 0x17, 0x0d, 0x25, 0xfe, 0xe8, 0xf8, 0x0c, 0x04, 
	0xf3, 0x09, 0xf9, 0x07, 0xf8, 0xf3, 0xf8, 0xdd, 0x0a, 0x19, 0xf4, 0xde, 
	0x1b, 0x03, 0xfa, 0xde, 0xe5, 0x1d, 0xe0, 0xe5, 0xe9, 0xe3, 0x02, 0xe8, 
	0xde, 0xe2, 0x1e, 0x19, 0x12, 0x03, 0xfb, 0xfb, 0xff, 0xec, 0xef, 0xfd, 
	0xdc, 0xf9, 0xf2, 0xe6, 0x0a, 0x0c, 0xe2, 0x0d, 0x1d, 0x0d, 0x1a, 0xee, 
	0xf9, 0x0f, 0xe0, 0xe8, 0xdb, 0x1f, 0x23, 0xff, 0x0f, 0xe8, 0x07, 0x00, 
	0x1c, 0xdd, 0xeb, 0x05, 0x10, 0xe6, 0xda, 0x23, 0x09, 0xe5, 0x22, 0xec, 
	0xe8, 0xf4, 0xfa, 0xdc, 0xee, 0x10, 0xdf, 0x0c, 0x1d, 0xf2, 0x00, 0xea, 
	0xfc, 0x11, 0x10, 0xe0, 0xdc, 0x24, 0x1a, 0xf0, 0xf1, 0x05, 0xf1, 0xfa, 
	0xea, 0x12, 0x06, 0xf6, 0xf2, 0x1e, 0xee, 0x23, 0x0b, 0x02, 0x0b, 0x12, 
	0xfb, 0xf5, 0xf7, 0x16, 0xeb, 0x25, 0xde, 0x07, 0xdf, 0x0f, 0x0a, 0x03, 
	0xf7, 0x1e, 0x12, 0x23, 0x0e, 0xfe, 0x03, 0x17, 0x17, 0x2f, 0xee, 0x02, 
	0x2a, 0x09, 0x21, 0xe6, 0xe9, 0x1d, 0x1d, 0x11, 0xed, 0xef, 0x20, 0xeb, 
	0xfb, 0x2d, 0xea, 0x1d, 0xf3, 0xe5, 0xfc, 0xe6, 0x01, 0xdf, 0x20, 0x01, 
	0x06, 0xed, 0xf2, 0xe9, 0xf2, 0xf8, 0x17, 0x02, 0xdb, 0xe0, 0xfb, 0x10, 
	0x23, 0x14, 0xf1, 0x1f, 0xfc, 0xe5, 0x1e, 0x0b, 0x06, 0xe7, 0x1d, 0xff, 
	0xf5, 0xf7, 0xfe, 0xe1, 0xde, 0x09, 0xe5, 0xe7, 0xfe, 0xe7, 0x00, 0xe1, 
	0xde, 0xef, 0xe1, 0xfa, 0xf1, 0x0a, 0x18, 0x1e, 0x05, 0xfa, 0x21, 0xf3, 
	0x02, 0xe7, 0xdc, 0xe5, 0xde, 0x18, 0x1e, 0xf9, 0x06, 0xfb, 0xff, 0x13, 
	0x16, 0xf7, 0x03, 0xf7, 0xdd, 0xec, 0xec, 0x1b, 0xda, 0x19, 0x1b, 0xe9, 
	0xe0, 0x0f, 0x23, 0x19, 0x11, 0x10, 0xe4, 0xf8, 0x16, 0x2a, 0xe7, 0xf5, 
	0x05, 0xe3, 0xe2, 0x1b, 0x05, 0xfd, 0x1b, 0x24, 0x17, 0x2c, 0x13, 0x1f, 
	0xf4, 0x13, 0xf6, 0x1b, 0x29, 0x1d, 0x1b, 0x24, 0x00, 0x2b, 0x10, 0x2a, 
	0xe9, 0x17, 0x27, 0xfb, 0xf9, 0x11, 0x1f, 0x0c, 0x1e, 0xf9, 0x05, 0xf0, 
	0xdd, 0x26, 0xcb, 0xff, 0xef, 0xeb, 0xf3, 0xfc, 0x01, 0x17, 0xfb, 0x1a, 
	0x07, 0xf9, 0x07, 0x26, 0x19, 0x3f, 0xed, 0x03, 0x0c, 0xf4, 0x26, 0x04, 
	0xd6, 0xe0, 0x09, 0x1f, 0x17, 0x37, 0xf8, 0x05, 0xfe, 0x0a, 0x10, 0xeb, 
	0x0a, 0xcd, 0xfd, 0xf2, 0x2e, 0xef, 0xdc, 0x99, 0x09, 0x11, 0xdf, 0x18, 
	0x44, 0xf8, 0xdc, 0x0b, 0xf7, 0xe9, 0xe3, 0xdd, 0xd1, 0xaf, 0xee, 0xe1, 
	0xee, 0x03, 0xb4, 0xf5, 0xf4, 0xe4, 0xd7, 0xcc, 0xfb, 0xcf, 0x13, 0x22, 
	0xe3, 0xfd, 0xfd, 0xfd, 0x30, 0xf9, 0x2d, 0x2f, 0x23, 0x1c, 0x58, 0x33, 
	0x1e, 0x31, 0x21, 0x0f, 0x20, 0xe4, 0x0c, 0x04, 0x28, 0xf6, 0xf8, 0x00, 
	0x0f, 0xef, 0x12, 0xe3, 0xeb, 0x2a, 0x01, 0xdb, 0x19, 0xf6, 0xfa, 0xb7, 
	0xf0, 0xee, 0x33, 0xf6, 0x1c, 0x1e, 0x00, 0xed, 0x29, 0x1f, 0x2b, 0x0c, 
	0x02, 0x0d, 0x24, 0x30, 0x02, 0xff, 0xec, 0xf0, 0x03, 0xcd, 0xe3, 0xdf, 
	0x1b, 0x1f, 0xf4, 0x1d, 0x1f, 0x35, 0x1a, 0xe3, 0xf2, 0x07, 0x18, 0xeb, 
	0xe3, 0x19, 0x28, 0xc1, 0x02, 0x22, 0x35, 0x13, 0x2b, 0xfc, 0xe5, 0xe7, 
	0x1d, 0x0a, 0xea, 0x1d, 0xff, 0xe3, 0xee, 0xf3, 0x04, 0xdd, 0xf1, 0x12, 
	0xd7, 0x1b, 0xfd, 0x1b, 0xd0, 0x0b, 0x0d, 0x1e, 0x1b, 0x03, 0x04, 0xce, 
	0xe9, 0x0a, 0x1c, 0x04, 0x12, 0xda, 0x1b, 0x32, 0x09, 0x17, 0xdd, 0x13, 
	0xf3, 0xe9, 0xde, 0x1f, 0xd0, 0xf3, 0xf1, 0xe2, 0x06, 0x0d, 0x47, 0x28, 
	0x06, 0x09, 0xe9, 0x10, 0xf3, 0xcc, 0xef, 0x04, 0x29, 0x07, 0x09, 0x19, 
	0xfb, 0x36, 0x25, 0x12, 0x25, 0x18, 0x13, 0xfc, 0xee, 0xed, 0x15, 0xed, 
	0x13, 0xef, 0x00, 0xfd, 0x11, 0x0f, 0xe7, 0x1a, 0xfb, 0x19, 0xed, 0x18, 
	0xd9, 0x0d, 0xfb, 0x46, 0xe0, 0x10, 0x11, 0xf6, 0xfa, 0xf2, 0xf6, 0xf5, 
	0x02, 0x17, 0x17, 0x31, 0x10, 0x17, 0xeb, 0x26, 0xe7, 0x01, 0x05, 0xf4, 
	0x1f, 0x15, 0xe6, 0x13, 0x1f, 0x1f, 0x09, 0xec, 0x25, 0xf5, 0x14, 0x20, 
	0xee, 0x04, 0xf0, 0x09, 0x12, 0x33, 0xa0, 0x0b, 0xf0, 0x1b, 0x0d, 0xf9, 
	0xe4, 0xef, 0x04, 0x15, 0xf9, 0xfb, 0x07, 0x20, 0x1a, 0x31, 0x0c, 0x20, 
	0x14, 0x31, 0x2b, 0x25, 0x18, 0x25, 0x01, 0x21, 0xf5, 0x24, 0x04, 0xf0, 
	0xf2, 0xe9, 0xd6, 0xf7, 0xe2, 0xda, 0xfc, 0xdd, 0xe8, 0xde, 0x5e, 0x2d, 
	0xf4, 0xd6, 0x16, 0x1e, 0x0b, 0x0a, 0xf3, 0x13, 0x11, 0x18, 0x0a, 0xe0, 
	0xf8, 0x21, 0x1c, 0x0a, 0xdd, 0x1b, 0xe6, 0xfc, 0x0f, 0xf1, 0x01, 0x14, 
	0xf4, 0xeb, 0xf9, 0xfd, 0xf3, 0x0f, 0xda, 0x0d, 0x21, 0xf0, 0xe8, 0x0f, 
	0x2a, 0xe4, 0x5a, 0x38, 0x1c, 0x1f, 0xe4, 0x0d, 0x12, 0xe5, 0xee, 0x0f, 
	0xea, 0xd1, 0xe9, 0xf0, 0x19, 0xe7, 0xfe, 0x0e, 0x13, 0x10, 0x03, 0x02, 
	0xe5, 0x27, 0x21, 0xf1, 0xf0, 0xd3, 0xe8, 0x1a, 0x2b, 0x22, 0x10, 0x14, 
	0x2a, 0x0a, 0x31, 0x33, 0xe5, 0x00, 0x1b, 0x20, 0x0b, 0xf1, 0xfd, 0x0c, 
	0xf4, 0x06, 0x1c, 0x20, 0x12, 0x27, 0x01, 0x02, 0x0b, 0x3e, 0xf4, 0x15, 
	0x0f, 0xf6, 0x0a, 0x27, 0xe4, 0xeb, 0x0f, 0xe2, 0xe4, 0xfc, 0x09, 0xef, 
	0xee, 0xe2, 0xf9, 0x16, 0x25, 0xe1, 0x04, 0x0c, 0x22, 0x11, 0x3b, 0x23, 
	0xfc, 0xe9, 0x07, 0xf4, 0x01, 0x0b, 0x1d, 0xfd, 0x0f, 0x0e, 0xef, 0xec, 
	0x21, 0x25, 0xfa, 0x12, 0xfa, 0x07, 0x24, 0xe3, 0x00, 0xed, 0x14, 0x0c, 
	0xe2, 0xbe, 0xc8, 0xe2, 0x17, 0x03, 0xf7, 0xf3, 0x06, 0x12, 0xe3, 0x01, 
	0x09, 0xd7, 0x06, 0xef, 0xdc, 0x14, 0xeb, 0xe6, 0xfa, 0xd0, 0x08, 0xda, 
	0xfb, 0xe0, 0xdf, 0x0f, 0x0f, 0x06, 0x18, 0x11, 0x0a, 0xf2, 0x0f, 0x12, 
	0xf1, 0x0b, 0xe0, 0xc4, 0x22, 0x1d, 0x1d, 0xe4, 0xed, 0xdf, 0xfa, 0x02, 
	0x09, 0xe8, 0xdd, 0x01, 0xe8, 0x0c, 0x4e, 0x1a, 0xe4, 0xdb, 0x14, 0xe6, 
	0x11, 0xdc, 0x1b, 0x06, 0x0f, 0x0c, 0xf7, 0x11, 0x24, 0xfa, 0xe0, 0x06, 
	0x09, 0xf6, 0xe9, 0xd1, 0xde, 0x21, 0x0f, 0xf5, 0xe9, 0x12, 0x22, 0x1c, 
	0x21, 0xeb, 0xe1, 0xfb, 0x1f, 0x0c, 0x23, 0xe1, 0xf2, 0x0b, 0x1c, 0xe9, 
	0x16, 0xf9, 0x15, 0x21, 0xe6, 0xff, 0xec, 0xe8, 0xf3, 0xf8, 0x0a, 0x23, 
	0x03, 0xdd, 0xf7, 0x0a, 0x1e, 0x15, 0x00, 0xdc, 0x0d, 0x1b, 0xf2, 0x0a, 
	0x20, 0x0a, 0xfb, 0x01, 0x1d, 0x23, 0xe5, 0xe4, 0xe6, 0x1c, 0xdc, 0x02, 
	0xf8, 0x2f, 0xf6, 0x3d, 0x22, 0x14, 0xfd, 0x10, 0xfa, 0x12, 0x03, 0x01, 
	0xf5, 0x14, 0xea, 0x1d, 0x06, 0x39, 0xdf, 0xe7, 0x13, 0x25, 0x23, 0xfb, 
	0x03, 0x09, 0x31, 0x26, 0xe9, 0x29, 0x0f, 0xe8, 0xeb, 0x0a, 0x01, 0xdc, 
	0xeb, 0xec, 0x07, 0xf4, 0xe9, 0x13, 0xdf, 0x43, 0xea, 0x02, 0xf9, 0x1a, 
	0xd0, 0x06, 0xec, 0x1e, 0xf3, 0xef, 0x07, 0x21, 0xfa, 0x1b, 0x12, 0xee, 
	0xf2, 0xe5, 0x10, 0x03, 0x19, 0xe3, 0x09, 0x08, 0xfd, 0x2e, 0xe6, 0xfc, 
	0x02, 0x02, 0x01, 0x09, 0x0f, 0xeb, 0x0b, 0x22, 0xe3, 0xfc, 0x52, 0x37, 
	0x1a, 0x06, 0x24, 0xff, 0xea, 0xd7, 0x18, 0x10, 0xfe, 0xf8, 0x13, 0x3c, 
	0x18, 0x21, 0xe2, 0x06, 0xed, 0x02, 0x19, 0xf2, 0xf4, 0xf8, 0x04, 0xec, 
	0x27, 0x40, 0x05, 0x00, 0x16, 0x11, 0x1d, 0x16, 0x0d, 0xe6, 0xed, 0x12, 
	0xe6, 0xe6, 0x05, 0x22, 0x15, 0x21, 0xfb, 0xe7, 0xe8, 0x02, 0x1e, 0xe0, 
	0xf6, 0xdb, 0xe0, 0xe5, 0x06, 0xf5, 0xf2, 0x0f, 0xf7, 0xfa, 0x0a, 0xed, 
	0x08, 0x23, 0xdd, 0x09, 0x1d, 0xe0, 0x09, 0xf9, 0xf0, 0xee, 0xdd, 0x1c, 
	0xf5, 0xdf, 0x1e, 0x01, 0xea, 0xe8, 0x3e, 0x16, 0xf3, 0x1a, 0x00, 0x1c, 
	0xf2, 0xd5, 0x07, 0x1c, 0x16, 0xfd, 0xea, 0x06, 0x1d, 0x07, 0x14, 0x07, 
	0x2a, 0x12, 0x11, 0x11, 0xe8, 0xff, 0xfd, 0xe1, 0x21, 0x27, 0x00, 0xfd, 
	0x14, 0xea, 0x12, 0x02, 0x28, 0x01, 0xe3, 0xed, 0xde, 0x05, 0x06, 0xf6, 
	0xe9, 0x1c, 0x1a, 0x22, 0xe6, 0x1a, 0x08, 0x1e, 0x06, 0x2f, 0xf5, 0x11, 
	0xea, 0x04, 0xdf, 0xfa, 0x11, 0x14, 0x10, 0x22, 0xff, 0x27, 0x24, 0x13, 
	0xe8, 0x38, 0xf0, 0xe6, 0x27, 0x25, 0xe6, 0x03, 0xed, 0xf8, 0x23, 0x11, 
	0x16, 0xd8, 0x0a, 0xe9, 0xfe, 0xe3, 0xe7, 0x09, 0xe0, 0x0f, 0x25, 0xed, 
	0xf0, 0xde, 0xe3, 0x03, 0x14, 0x1e, 0x0f, 0xde, 0x18, 0xf8, 0x19, 0xe7, 
	0x1c, 0xdc, 0xe0, 0x1b, 0x15, 0xf1, 0x1b, 0xef, 0x18, 0x21, 0xf4, 0x15, 
	0x14, 0xe3, 0x0b, 0xe3, 0xf4, 0xf2, 0x66, 0x19, 0x23, 0xe6, 0xf7, 0x2a, 
	0x09, 0x0a, 0x0b, 0x12, 0xeb, 0x08, 0xe6, 0x11, 0x02, 0x29, 0xee, 0xe9, 
	0x19, 0xea, 0xfe, 0x1a, 0xdc, 0x0d, 0xfe, 0xbc, 0x14, 0xf9, 0x2c, 0xdc, 
	0xff, 0x1a, 0xf2, 0x25, 0x23, 0xfe, 0x06, 0x18, 0x2b, 0x18, 0x5d, 0x07, 
	0xee, 0x27, 0x23, 0x22, 0x2b, 0xd2, 0xe8, 0xf2, 0xff, 0x14, 0x01, 0xc9, 
	0xde, 0x1c, 0xeb, 0xf0, 0xfb, 0x25, 0x0d, 0x27, 0x0e, 0x07, 0xdf, 0xc0, 
	0x21, 0xd7, 0xf2, 0x25, 0xf6, 0x26, 0x13, 0x22, 0x1f, 0x22, 0x0f, 0x16, 
	0x0e, 0xf1, 0x0b, 0xdf, 0x02, 0xe4, 0x20, 0xef, 0xf2, 0x1f, 0xf9, 0xea, 
	0x22, 0x10, 0xe0, 0xe7, 0xdc, 0x1c, 0xf5, 0xfb, 0xf8, 0xf3, 0x0a, 0xf7, 
	0x1d, 0xe0, 0xe2, 0xee, 0x0e, 0x07, 0x24, 0xe5, 0x0e, 0x18, 0xef, 0xff, 
	0xee, 0x13, 0xf3, 0xde, 0xf3, 0xcb, 0xd8, 0xff, 0xef, 0xfc, 0x1a, 0x09, 
	0x28, 0x19, 0x16, 0xf1, 0x26, 0xfc, 0x04, 0xa2, 0x1b, 0xe2, 0xdf, 0xea, 
	0xe2, 0x1e, 0xb7, 0x00, 0x05, 0xe1, 0xe0, 0xd1, 0x0b, 0xa9, 0xfe, 0x10, 
	0x0a, 0xed, 0x20, 0x1e, 0xec, 0x24, 0x1d, 0x19, 0xf7, 0xf3, 0x18, 0xfe, 
	0x09, 0x1f, 0xdd, 0x0a, 0x08, 0xfc, 0xf7, 0x00, 0x0c, 0xea, 0x14, 0xe2, 
	0xe1, 0xbe, 0xfa, 0x22, 0x01, 0x22, 0xd0, 0x01, 0x0d, 0x04, 0xe8, 0xee, 
	0x04, 0xe5, 0xe6, 0xf5, 0xff, 0xeb, 0x04, 0x1f, 0xfe, 0xfd, 0x1e, 0x16, 
	0x03, 0x26, 0x4b, 0x4c, 0xf1, 0x01, 0xe0, 0xee, 0x07, 0xe0, 0xf9, 0x1e, 
	0xf1, 0xfc, 0x0d, 0x07, 0x24, 0x0b, 0x0a, 0x27, 0xfa, 0x07, 0x07, 0x22, 
	0x21, 0x0d, 0xfe, 0xec, 0xe1, 0xff, 0x27, 0xe6, 0xfa, 0x0d, 0x29, 0xee, 
	0x0a, 0x0c, 0x26, 0x03, 0x05, 0xf3, 0x2a, 0x2c, 0xe3, 0x22, 0xe1, 0xe4, 
	0xea, 0xe8, 0xdf, 0xe9, 0x19, 0x26, 0x03, 0xff, 0xf7, 0x16, 0x00, 0x16, 
	0xed, 0x25, 0x3e, 0xf7, 0xf2, 0x0c, 0xf7, 0xed, 0x0e, 0x42, 0x08, 0xe4, 
	0x19, 0x1d, 0x02, 0x07, 0x1a, 0x08, 0x20, 0xf6, 0x10, 0xd5, 0x17, 0xba, 
	0x12, 0x0c, 0xfc, 0xfb, 0x32, 0xf7, 0xdd, 0x0e, 0xf6, 0xe5, 0x1d, 0xad, 
	0xfe, 0xb5, 0x1b, 0xed, 0xdd, 0xe7, 0xda, 0x08, 0xe7, 0x2d, 0xca, 0xdd, 
	0xe8, 0xe3, 0xeb, 0x24, 0x03, 0xf0, 0x33, 0xf6, 0x00, 0x32, 0xe4, 0x34, 
	0xf5, 0x1b, 0x26, 0x32, 0x23, 0x1f, 0x14, 0xec, 0x1a, 0xc5, 0x0d, 0x09, 
	0xfc, 0xec, 0xea, 0x27, 0xea, 0x27, 0xf4, 0xf9, 0x11, 0x0a, 0x1a, 0x1c, 
	0x03, 0x21, 0x16, 0xf1, 0x25, 0x2b, 0x20, 0xe3, 0x13, 0x06, 0xe1, 0x1b, 
	0xfc, 0x12, 0xea, 0xe9, 0xfc, 0xf4, 0xbb, 0xf9, 0xe3, 0xfa, 0x02, 0xfd, 
	0xc5, 0x3d, 0xf1, 0xeb, 0x14, 0x2d, 0x19, 0x34, 0xf3, 0x0e, 0x13, 0x1a, 
	0xde, 0x03, 0xf9, 0x2d, 0x08, 0xe2, 0x1b, 0x15, 0xe1, 0x30, 0x11, 0xff, 
	0x21, 0xe8, 0xf5, 0xdf, 0x08, 0x0f, 0x05, 0xfa, 0xe1, 0xfc, 0xc6, 0x12, 
	0x09, 0xfe, 0x00, 0xe6, 0x26, 0xe4, 0x24, 0xfc, 0x09, 0x10, 0x00, 0xfc, 
	0x0a, 0x07, 0x08, 0x05, 0xdb, 0xe7, 0xfe, 0xde, 0x1e, 0x0f, 0x1e, 0xea, 
	0x10, 0xf3, 0xb6, 0x01, 0x00, 0xf3, 0x05, 0x00, 0x25, 0x10, 0x12, 0x11, 
	0xf4, 0x24, 0x93, 0xbc, 0x08, 0x1c, 0x04, 0x04, 0xd5, 0x21, 0xe4, 0x0c, 
	0x01, 0x0c, 0x21, 0x17, 0x2a, 0x00, 0x04, 0xde, 0x17, 0xf7, 0x2d, 0x28, 
	0xf5, 0xf5, 0xed, 0x1a, 0x12, 0x22, 0xe9, 0x1e, 0x06, 0x18, 0xdb, 0xdd, 
	0xd9, 0xe8, 0x09, 0xd0, 0x01, 0xff, 0xfa, 0xdb, 0x21, 0xf0, 0x03, 0xf1, 
	0x11, 0xe0, 0x01, 0x22, 0x17, 0x16, 0xf4, 0xf0, 0xde, 0xe6, 0x0b, 0xdb, 
	0x04, 0xde, 0x21, 0x02, 0x24, 0x11, 0xe2, 0xea, 0x08, 0x21, 0xe7, 0xef, 
	0xf2, 0xf0, 0xe0, 0x20, 0xed, 0x1f, 0xda, 0xd8, 0xec, 0x07, 0x4d, 0x09, 
	0x12, 0x20, 0x1e, 0x08, 0xfc, 0xe6, 0xdd, 0xf0, 0x26, 0x07, 0xf7, 0x06, 
	0x07, 0x24, 0xf2, 0x1d, 0xf1, 0x28, 0x37, 0x12, 0x14, 0x20, 0xf0, 0xc4, 
	0xe7, 0x17, 0x19, 0xf9, 0x0c, 0x00, 0x0e, 0xf1, 0x06, 0xe0, 0x0c, 0x14, 
	0xd8, 0xdc, 0x1f, 0x01, 0xe3, 0xde, 0xdd, 0xdc, 0x06, 0xf4, 0xed, 0xf0, 
	0x19, 0x13, 0x06, 0x02, 0x08, 0xe0, 0x17, 0x03, 0x0a, 0x20, 0xf2, 0x18, 
	0xf7, 0xe9, 0x15, 0x18, 0x05, 0x1c, 0xed, 0xeb, 0x0f, 0xd8, 0xe3, 0xe6, 
	0xed, 0xfd, 0xf3, 0xfb, 0xd5, 0x03, 0xad, 0xe2, 0x09, 0xec, 0xf1, 0xfb, 
	0xfc, 0x43, 0x17, 0x28, 0xc3, 0xf0, 0xfa, 0x2d, 0xdb, 0x24, 0x1b, 0xd8, 
	0xf0, 0xef, 0x31, 0x05, 0x25, 0xfb, 0x01, 0x5a, 0xf3, 0x2a, 0x1a, 0x1e, 
	0xed, 0x08, 0xdc, 0xdc, 0xe7, 0xc9, 0xfc, 0xcc, 0xfd, 0x0d, 0x49, 0x16, 
	0x02, 0x00, 0xe7, 0xe8, 0x0d, 0xfd, 0x1c, 0xea, 0xef, 0x2b, 0x22, 0x41, 
	0xe4, 0x2a, 0xde, 0xee, 0xe1, 0xf6, 0x1c, 0x2b, 0x09, 0x0c, 0x11, 0xf3, 
	0xe6, 0x11, 0x09, 0x0c, 0x19, 0xe5, 0x1e, 0xdd, 0x1c, 0xe2, 0xfc, 0x04, 
	0x2d, 0xcc, 0xf3, 0xd9, 0x0f, 0x07, 0xed, 0x2e, 0x1c, 0xee, 0x20, 0xf6, 
	0xe7, 0xf1, 0x0c, 0x97, 0x19, 0xd3, 0x23, 0xff, 0x15, 0xc0, 0xc3, 0x20, 
	0x04, 0x27, 0xc4, 0xdb, 0xe5, 0xe1, 0x0b, 0x1e, 0xfe, 0x1d, 0x00, 0x13, 
	0xf1, 0x30, 0xe2, 0x24, 0x18, 0xf6, 0xe5, 0xe3, 0x1d, 0x0b, 0xe2, 0x1c, 
	0x13, 0xdb, 0x18, 0xfa, 0xfc, 0xe3, 0x0b, 0x10, 0x05, 0xd5, 0x14, 0x1c, 
	0x02, 0xee, 0x1f, 0xff, 0x23, 0xf5, 0xfb, 0x25, 0xe6, 0xc9, 0x19, 0xf7, 
	0x02, 0xd7, 0xf1, 0x1f, 0xf4, 0xe6, 0x0b, 0x03, 0x81, 0xf8, 0xe4, 0x08, 
	0x03, 0x0e, 0xfe, 0xde, 0xc9, 0x2d, 0x23, 0x10, 0xed, 0xfb, 0xf7, 0x19, 
	0xff, 0x1a, 0xf8, 0xef, 0x13, 0xf1, 0x1a, 0x08, 0x20, 0xf2, 0x25, 0x59, 
	0xe3, 0xef, 0x19, 0x24, 0x20, 0xf5, 0xda, 0x22, 0xf9, 0xc6, 0xe8, 0xde, 
	0xf3, 0x19, 0x93, 0xde, 0x13, 0x0c, 0x11, 0x04, 0xd8, 0x30, 0x10, 0xde, 
	0x19, 0x0e, 0x0c, 0x2f, 0x28, 0x18, 0x1b, 0xdf, 0xeb, 0xc6, 0xf6, 0xfe, 
	0xe6, 0xe6, 0x04, 0x14, 0x1a, 0x05, 0xe3, 0x08, 0xee, 0xc8, 0x25, 0xe6, 
	0x07, 0x03, 0x04, 0xfc, 0x0d, 0x13, 0xc1, 0x18, 0xe9, 0x18, 0xdb, 0xe6, 
	0xde, 0x18, 0xdd, 0xec, 0x0e, 0x38, 0xf6, 0x4c, 0x1c, 0x0d, 0x17, 0xfb, 
	0xe4, 0xed, 0x25, 0x2f, 0xf4, 0xe9, 0xed, 0x19, 0xf0, 0x42, 0xfc, 0xf6, 
	0xe9, 0x07, 0x14, 0xf8, 0xf6, 0xec, 0x22, 0xf8, 0xf2, 0x0a, 0x90, 0x0e, 
	0xf3, 0x1c, 0xe4, 0xd8, 0xde, 0x0f, 0xe2, 0x0a, 0xe7, 0x1a, 0x16, 0x37, 
	0x18, 0x32, 0xf0, 0x06, 0x21, 0xf4, 0x40, 0x22, 0xea, 0x26, 0x27, 0x29, 
	0xfb, 0x44, 0xe7, 0xfd, 0x27, 0x0e, 0x03, 0xf1, 0x07, 0xe1, 0x06, 0xde, 
	0x1b, 0x29, 0x18, 0x12, 0x17, 0x19, 0xf5, 0x24, 0xed, 0xf0, 0x07, 0xf3, 
	0xfe, 0xfa, 0xf3, 0x0d, 0xd1, 0xe8, 0x0c, 0xed, 0xf7, 0x1d, 0xe7, 0x23, 
	0xdf, 0xcb, 0xe9, 0xc5, 0x22, 0x1c, 0xf8, 0xec, 0xda, 0xf1, 0x00, 0xf5, 
	0xe6, 0xd3, 0xe5, 0x07, 0xe2, 0x08, 0xcc, 0x27, 0x1b, 0x0d, 0xfe, 0xdf, 
	0xf0, 0x20, 0x18, 0x12, 0xdd, 0x30, 0x22, 0x48, 0x17, 0x2e, 0xec, 0x08, 
	0x17, 0x10, 0x36, 0x1b, 0x13, 0xe2, 0xfa, 0x43, 0x02, 0x47, 0xf6, 0xf9, 
	0x29, 0x08, 0xd9, 0xee, 0x1c, 0xef, 0x1d, 0xf9, 0xeb, 0xdd, 0x69, 0xfc, 
	0x1b, 0x14, 0xf2, 0xf9, 0x18, 0xfc, 0x1c, 0x0b, 0x10, 0x1b, 0x0e, 0xf3, 
	0xf0, 0x04, 0x05, 0x20, 0x0c, 0xfc, 0xfb, 0x00, 0x1c, 0xe1, 0xf7, 0xe0, 
	0xea, 0xe2, 0x08, 0x1c, 0x10, 0xe6, 0x1d, 0xf0, 0x24, 0xfa, 0x01, 0x07, 
	0x17, 0x21, 0x60, 0x2f, 0x04, 0x34, 0x23, 0xf8, 0x38, 0xd5, 0xf7, 0x04, 
	0x16, 0xf5, 0x13, 0xb3, 0xf5, 0x18, 0xee, 0x1b, 0x12, 0xf5, 0xda, 0xf4, 
	0x22, 0x39, 0xe9, 0xc2, 0x33, 0xf5, 0x01, 0xeb, 0xf6, 0x02, 0x13, 0x12, 
	0x24, 0xf6, 0x39, 0x31, 0xfb, 0x1f, 0x5f, 0x20, 0xfb, 0xea, 0xed, 0x29, 
	0xe1, 0xc2, 0x12, 0xea, 0xec, 0x03, 0xf8, 0x33, 0x22, 0x06, 0x14, 0x09, 
	0xe7, 0xfb, 0x18, 0xeb, 0x19, 0x1e, 0x09, 0xf1, 0x25, 0x14, 0x27, 0x20, 
	0x14, 0xf4, 0xf7, 0xff, 0xea, 0x09, 0x16, 0x10, 0xf6, 0x16, 0x04, 0xfb, 
	0x0c, 0xff, 0xf9, 0x13, 0xf8, 0xde, 0x1e, 0x07, 0x0a, 0xee, 0x11, 0x24, 
	0x2c, 0x2b, 0x05, 0x1c, 0x28, 0x1d, 0x40, 0x22, 0x14, 0x04, 0xe0, 0x1a, 
	0x13, 0x16, 0x28, 0x22, 0x1a, 0xee, 0xed, 0x0f, 0x26, 0x1e, 0x07, 0xe5, 
	0x0b, 0x0d, 0x9f, 0xdb, 0x12, 0xf8, 0x22, 0x01, 0xf7, 0x2f, 0xf9, 0x21, 
	0xff, 0xef, 0xe0, 0x47, 0xe8, 0x2d, 0xfc, 0xe6, 0xfb, 0xee, 0xf5, 0xf3, 
	0x00, 0x01, 0x05, 0x4a, 0x02, 0x0c, 0x04, 0x23, 0xe0, 0xe3, 0x0b, 0x1b, 
	0x15, 0x1b, 0xe2, 0x0c, 0x0e, 0xf0, 0xff, 0xff, 0x04, 0x00, 0x00, 0x00, 
	0x80, 0x0c, 0x00, 0x00, 0xc2, 0x56, 0xd6, 0x3d, 0xc6, 0xa5, 0xdc, 0x3d, 
	0x0a, 0xfb, 0x3a, 0x3e, 0x68, 0x74, 0xa3, 0xbd, 0xb1, 0xc1, 0xb0, 0xbd, 
	0xa4, 0xd3, 0x05, 0x3e, 0xb1, 0xf5, 0x22, 0xbe, 0xee, 0x3b, 0x03, 0x3c, 
	0xe1, 0x23, 0x43, 0xbe, 0xee, 0xc5, 0xca, 0xbd, 0xcc, 0x24, 0xc2, 0x3e, 
	0x04, 0x41, 0x62, 0x3e, 0x44, 0x20, 0xaf, 0xbc, 0xf0, 0x32, 0x31, 0x3e, 
	0x9c, 0x28, 0xcb, 0x3e, 0xc2, 0x85, 0xc5, 0x3e, 0xae, 0x04, 0xc3, 0x3d, 
	0x1a, 0x42, 0xcb, 0x3d, 0x3f, 0xb8, 0x8c, 0xbd, 0x19, 0xad, 0x39, 0x3d, 
	0x8e, 0xd4, 0x44, 0x3e, 0x8a, 0x07, 0x98, 0xbe, 0x40, 0x0d, 0xef, 0x3c, 
	0xd1, 0x19, 0x0a, 0xbe, 0xc1, 0xec, 0x4c, 0x3e, 0x33, 0x63, 0x9a, 0xbe, 
	0x9b, 0x38, 0x75, 0x3e, 0x4f, 0x44, 0x80, 0xbe, 0x08, 0xea, 0x29, 0xba, 
	0x62, 0xe4, 0x7e, 0xbe, 0x3b, 0x4c, 0x63, 0xbd, 0x9e, 0x48, 0x99, 0x3e, 
	0xa5, 0xe8, 0x04, 0x3e, 0x52, 0x5b, 0x30, 0xbe, 0xa9, 0xbb, 0x9d, 0x3c, 
	0x7b, 0x5e, 0xbe, 0x3d, 0xc5, 0xd4, 0xa5, 0xbd, 0xfd, 0xca, 0x17, 0x3e, 
	0xed, 0xd8, 0xa3, 0xbe, 0x7c, 0x67, 0x39, 0x3e, 0x12, 0xb2, 0xf2, 0x3d, 
	0xa1, 0xe7, 0x8a, 0x3e, 0x75, 0xe0, 0x11, 0xbf, 0x73, 0x1d, 0x66, 0x3e, 
	0xf3, 0x33, 0x81, 0xbe, 0x1b, 0xeb, 0x0f, 0x3d, 0x61, 0xb9, 0x0e, 0xbe, 
	0x73, 0xd9, 0x84, 0x3e, 0x70, 0x8c, 0xfd, 0x3c, 0x5f, 0x90, 0xb7, 0x3c, 
	0x3a, 0x2e, 0xbd, 0xbe, 0x39, 0xed, 0x43, 0xbe, 0x2d, 0x9e, 0xbc, 0x3e, 
	0xb2, 0x4d, 0x98, 0xbd, 0x0e, 0x6d, 0xe7, 0xbe, 0xd9, 0xc5, 0x4f, 0xbe, 
	0xf6, 0xeb, 0x00, 0x3f, 0x35, 0x18, 0xcf, 0x3d, 0x67, 0xce, 0x3f, 0xbf, 
	0x0f, 0x5b, 0x97, 0xbd, 0x1e, 0x7f, 0x82, 0x3e, 0x94, 0x83, 0x40, 0x3e, 
	0x6b, 0x01, 0xdb, 0xbe, 0xf5, 0x35, 0x0f, 0x3d, 0x3a, 0x60, 0xad, 0xbe, 
	0xc4, 0x4f, 0x2b, 0xbe, 0x57, 0x97, 0x85, 0x3e, 0x96, 0x87, 0x76, 0x3c, 
	0xd1, 0xc6, 0x94, 0x3e, 0xd8, 0xae, 0xd8, 0x3d, 0xa0, 0xfa, 0x25, 0xbf, 
	0x79, 0xaf, 0x46, 0x3c, 0x06, 0x49, 0x20, 0xbd, 0x48, 0xd5, 0x92, 0xbe, 
	0x23, 0x2e, 0x06, 0xbe, 0xf4, 0x6e, 0x16, 0xbe, 0x91, 0x0b, 0xc4, 0x3e, 
	0x68, 0xc8, 0x8b, 0x3e, 0x1d, 0xaa, 0xa6, 0xbe, 0x7d, 0x59, 0x80, 0xbe, 
	0x86, 0xa4, 0x38, 0x3e, 0x50, 0xed, 0x3a, 0xbd, 0x28, 0x6f, 0x45, 0xbe, 
	0xea, 0x01, 0xca, 0xbd, 0x80, 0xdb, 0x68, 0xbe, 0x60, 0x18, 0x79, 0xbe, 
	0x2c, 0xfe, 0x88, 0x3d, 0x28, 0x6c, 0xc5, 0xbd, 0x52, 0xa2, 0x6e, 0xbe, 
	0x40, 0x0a, 0x40, 0xbe, 0x42, 0xa5, 0x46, 0xbe, 0x90, 0x5c, 0xb5, 0x3d, 
	0x54, 0x9b, 0x78, 0xbe, 0xea, 0xd2, 0x5d, 0xbe, 0x18, 0x7a, 0x92, 0x3d, 
	0x76, 0x63, 0x1f, 0xbe, 0x71, 0x32, 0x9d, 0x3e, 0xf0, 0x45, 0x26, 0xbe, 
	0x5b, 0xd8, 0x88, 0xbe, 0x80, 0x4b, 0x5b, 0x3b, 0xd6, 0x15, 0xba, 0xbd, 
	0x9d, 0x87, 0x1b, 0x3d, 0x95, 0x4e, 0xff, 0xbd, 0x1e, 0xc3, 0x90, 0x3e, 
	0xba, 0x49, 0x4f, 0xbc, 0x40, 0x74, 0x4c, 0xbe, 0xe5, 0x26, 0xae, 0x3d, 
	0x71, 0x68, 0xa9, 0x3e, 0x3e, 0x48, 0x88, 0xbe, 0xbd, 0x94, 0x7d, 0xbe, 
	0xec, 0x3f, 0x6d, 0x3e, 0x14, 0xd3, 0xb8, 0x3d, 0xcf, 0x83, 0xc2, 0x3e, 
	0x6d, 0x93, 0xa2, 0xbc, 0x55, 0xd2, 0xa5, 0x3e, 0x1f, 0x6b, 0x57, 0x3e, 
	0x2a, 0x3c, 0xea, 0x3c, 0xfa, 0x2e, 0x8a, 0x3a, 0xa0, 0x59, 0xa6, 0xbe, 
	0x76, 0x4a, 0x7c, 0xbe, 0x52, 0x46, 0x22, 0x3e, 0xb3, 0xf1, 0x9c, 0xbe, 
	0x63, 0x0f, 0x56, 0xbe, 0xca, 0x99, 0x58, 0xbe, 0x33, 0xee, 0x8f, 0xbe, 
	0x52, 0x72, 0x11, 0x3e, 0x06, 0xb7, 0x5b, 0x3e, 0xed, 0xf8, 0x76, 0x3c, 
	0x8e, 0x34, 0xe2, 0xbd, 0xd0, 0x05, 0xc5, 0xbd, 0x4a, 0x71, 0x7c, 0x3e, 
	0x00, 0x21, 0x11, 0xbc, 0x2a, 0x12, 0x41, 0x3e, 0x4f, 0xe4, 0xe4, 0x3d, 
	0x8d, 0x93, 0xec, 0x3d, 0x50, 0xf7, 0x37, 0xbe, 0xda, 0x28, 0xe4, 0xbd, 
	0x79, 0x57, 0x05, 0x3e, 0xa2, 0x29, 0x98, 0xbe, 0xb7, 0x8f, 0x7a, 0x3d, 
	0x7e, 0x94, 0x6c, 0x3e, 0xd8, 0x02, 0x2c, 0x3e, 0xd3, 0x41, 0x53, 0xbe, 
	0xae, 0x39, 0x81, 0x3e, 0x5f, 0x9e, 0xa9, 0x3d, 0x12, 0xf8, 0x40, 0xbd, 
	0x09, 0x30, 0x89, 0x3e, 0x71, 0x8f, 0xa3, 0x3e, 0xf8, 0xd4, 0x58, 0xbd, 
	0x7d, 0xf2, 0x4f, 0xbe, 0xa9, 0x56, 0x93, 0xbe, 0xc7, 0xcd, 0x25, 0xbd, 
	0x4f, 0xde, 0x3a, 0xbe, 0x2e, 0x72, 0x26, 0x3e, 0x0a, 0x0b, 0x78, 0x3d, 
	0xc6, 0xd5, 0x0f, 0xbe, 0xd5, 0xa2, 0xa5, 0x3e, 0x64, 0xd7, 0xfd, 0xbc, 
	0x42, 0x1c, 0x14, 0xbd, 0xb1, 0x42, 0x38, 0x3e, 0xc5, 0x66, 0x69, 0x3e, 
	0x6d, 0x04, 0x3b, 0x3e, 0x7b, 0xf8, 0xaa, 0x3e, 0xd6, 0x6b, 0x43, 0xbe, 
	0x42, 0x76, 0x03, 0xbe, 0x48, 0xdb, 0xa7, 0x3b, 0x11, 0x9d, 0xa3, 0x3e, 
	0x33, 0x65, 0xa0, 0x3e, 0xb9, 0xfe, 0x50, 0xbd, 0xea, 0xed, 0x83, 0x3e, 
	0x23, 0x18, 0x2a, 0x3e, 0x07, 0x39, 0x1c, 0xbe, 0x64, 0x9a, 0xd5, 0x3d, 
	0x3d, 0x05, 0xd4, 0x3e, 0xcf, 0x21, 0x0c, 0x3e, 0x03, 0xb0, 0x93, 0x3d, 
	0xc7, 0x28, 0x19, 0x3e, 0xd1, 0x15, 0x2a, 0xbe, 0x13, 0xc3, 0xa5, 0x3e, 
	0xe2, 0xb1, 0x04, 0xbe, 0xc9, 0x09, 0xf8, 0xbe, 0x8d, 0x2c, 0x88, 0xbe, 
	0xb5, 0x0f, 0x93, 0x3e, 0xc8, 0x84, 0x24, 0x3e, 0x73, 0x10, 0x1e, 0xbe, 
	0xb9, 0xad, 0x62, 0xbe, 0x13, 0x09, 0xc8, 0x3d, 0x37, 0xb7, 0x87, 0xbc, 
	0xe5, 0x95, 0x54, 0xbc, 0xb4, 0x56, 0x0b, 0x3e, 0x24, 0xc5, 0x78, 0x3e, 
	0x0e, 0xf6, 0x81, 0x3d, 0x91, 0xb9, 0x69, 0x3d, 0x98, 0x16, 0xe5, 0xbd, 
	0x43, 0xb7, 0xbf, 0xbe, 0x73, 0x14, 0xf7, 0xbe, 0x16, 0xf2, 0x1e, 0x3e, 
	0x74, 0xa5, 0x11, 0xbf, 0xee, 0x4e, 0x96, 0xbe, 0x52, 0x8f, 0x07, 0xbe, 
	0x10, 0x13, 0xcc, 0x3c, 0xfc, 0xba, 0x03, 0x3e, 0xc9, 0xda, 0x9d, 0x3e, 
	0x6e, 0x1c, 0x63, 0xbe, 0x9b, 0x06, 0x7f, 0xbe, 0x49, 0xba, 0x82, 0xbe, 
	0xac, 0xb4, 0xbd, 0x3d, 0xba, 0x57, 0xe7, 0xbd, 0x20, 0x01, 0xc1, 0xbd, 
	0x86, 0x96, 0x68, 0xbe, 0x10, 0xb9, 0x43, 0xbe, 0x4c, 0xaa, 0x33, 0x3e, 
	0x02, 0x70, 0x53, 0x3e, 0xe8, 0x96, 0xa9, 0x3d, 0x43, 0xc1, 0x85, 0xbe, 
	0x40, 0xf5, 0xd0, 0x3d, 0x8d, 0xe5, 0x99, 0xbe, 0xe0, 0x60, 0x8c, 0xbe, 
	0x1c, 0xa3, 0x80, 0xbe, 0x1a, 0x1c, 0xd1, 0xbd, 0x90, 0x7b, 0x9c, 0x3e, 
	0x85, 0x0e, 0x81, 0x3e, 0xa2, 0xe2, 0x8b, 0x3e, 0x5b, 0x80, 0x0e, 0x3e, 
	0xa8, 0x9c, 0x63, 0x3e, 0x29, 0x95, 0x24, 0xbc, 0x9d, 0x93, 0x22, 0xbe, 
	0x39, 0x5b, 0x30, 0xbe, 0x08, 0x74, 0xae, 0x3e, 0xc6, 0x09, 0x32, 0x3e, 
	0x60, 0xc0, 0x08, 0x3e, 0x4e, 0xfc, 0x28, 0x3e, 0x28, 0x64, 0x4b, 0x3e, 
	0xc7, 0xf2, 0xee, 0xbd, 0x6d, 0x32, 0x65, 0x3e, 0x99, 0xf1, 0x61, 0x3e, 
	0x69, 0xab, 0x20, 0x3e, 0xc3, 0xd5, 0x76, 0xbe, 0x85, 0x21, 0xaa, 0xbc, 
	0x05, 0x41, 0x48, 0xbe, 0x09, 0xb7, 0x88, 0x3e, 0x3b, 0xda, 0x74, 0x3d, 
	0x2b, 0x5b, 0x91, 0xbc, 0xce, 0xf3, 0x4d, 0xbe, 0x0d, 0x76, 0x8f, 0x3e, 
	0x44, 0xb9, 0xc7, 0x3d, 0x7f, 0x1f, 0xb7, 0xbc, 0x7e, 0xf6, 0x01, 0xbc, 
	0x69, 0xee, 0xf4, 0x3c, 0xf3, 0x1f, 0x4d, 0xbe, 0x96, 0x61, 0x2b, 0xbe, 
	0xe6, 0xd9, 0x2b, 0x3e, 0x30, 0xac, 0xac, 0x3e, 0x74, 0xa7, 0x83, 0xbe, 
	0xd2, 0x53, 0x36, 0x3e, 0x0b, 0xd7, 0xd6, 0x3d, 0x74, 0x43, 0xbb, 0x3d, 
	0x14, 0xe8, 0x53, 0x3e, 0x1f, 0x1e, 0xb6, 0xbd, 0xe4, 0x31, 0x9b, 0x3e, 
	0x8f, 0xdb, 0x1f, 0xbd, 0x54, 0x5d, 0xf5, 0x3b, 0x60, 0xef, 0x22, 0x3e, 
	0xd9, 0xaf, 0x4a, 0xbe, 0xea, 0x5f, 0x3a, 0xbe, 0x99, 0xb3, 0x2d, 0xbe, 
	0x07, 0x0b, 0x82, 0xbc, 0xe8, 0x09, 0x5b, 0xbe, 0x45, 0x57, 0xa6, 0xbd, 
	0x30, 0x81, 0xc9, 0x3d, 0x68, 0x85, 0x82, 0x3d, 0x65, 0xb3, 0x98, 0xbd, 
	0xf0, 0x05, 0x91, 0x3e, 0xf0, 0x01, 0xa1, 0xbe, 0x85, 0x23, 0x22, 0x3e, 
	0x49, 0x9f, 0x4b, 0x3e, 0x21, 0x8d, 0x0d, 0xbe, 0x7e, 0xda, 0x58, 0xbe, 
	0x5f, 0x39, 0x02, 0xbe, 0x6f, 0x5b, 0x32, 0x3e, 0x63, 0x84, 0x0d, 0x3d, 
	0x68, 0x09, 0xbf, 0x3d, 0x0e, 0xe3, 0x72, 0xbe, 0x33, 0x54, 0x54, 0x3e, 
	0xae, 0x3d, 0x57, 0x3e, 0x00, 0x8b, 0x6d, 0xbd, 0xa4, 0x6d, 0x1b, 0xbe, 
	0x16, 0x44, 0x8c, 0xbe, 0xc0, 0x44, 0xad, 0xbe, 0x0a, 0xb7, 0x35, 0xbe, 
	0x1d, 0x9c, 0x47, 0xbe, 0x9c, 0x66, 0x5a, 0xbe, 0x52, 0x11, 0x81, 0x3e, 
	0x8a, 0x09, 0x42, 0x3c, 0xee, 0x83, 0x93, 0xbe, 0x16, 0xc5, 0x15, 0x3b, 
	0x7e, 0x5b, 0x01, 0x3e, 0xc2, 0x86, 0x10, 0x3b, 0xf4, 0x88, 0xd0, 0xbd, 
	0xae, 0x68, 0x9b, 0x3c, 0x78, 0x9e, 0x9b, 0xbe, 0xb9, 0x5f, 0x0a, 0x3e, 
	0xf4, 0xa4, 0xad, 0x3e, 0xfe, 0x0b, 0x39, 0x3d, 0x9a, 0x5c, 0x29, 0xbe, 
	0xd8, 0x8d, 0x91, 0xbe, 0xcc, 0x28, 0x81, 0x3e, 0xe5, 0xf1, 0x99, 0xbe, 
	0x69, 0x5d, 0xc2, 0x3e, 0x28, 0xca, 0x81, 0xbe, 0xe4, 0xce, 0xa7, 0xbd, 
	0xc3, 0x7e, 0xe0, 0x3d, 0x1c, 0x49, 0x89, 0x3d, 0xb4, 0xa3, 0x62, 0xbe, 
	0x9c, 0x66, 0x80, 0x3d, 0x6c, 0x77, 0x5d, 0x3e, 0x70, 0x9f, 0x97, 0xbe, 
	0xad, 0x8c, 0xdb, 0xbd, 0x9a, 0xef, 0x99, 0xbe, 0x29, 0x8f, 0x78, 0x3d, 
	0x0c, 0x5e, 0x02, 0x3d, 0xa7, 0xc6, 0x3b, 0x3d, 0x67, 0x0f, 0x85, 0x3e, 
	0x7b, 0x4b, 0x47, 0xbe, 0x74, 0x0b, 0xa1, 0x3c, 0x6e, 0x50, 0xe1, 0x3d, 
	0xac, 0xb5, 0x8c, 0x3e, 0x88, 0xc3, 0x9d, 0xbd, 0xfb, 0xa8, 0x1e, 0x3e, 
	0x37, 0x92, 0xd6, 0x3d, 0x39, 0xbb, 0xad, 0xbe, 0xf7, 0x5e, 0x38, 0x3e, 
	0x4b, 0xde, 0xb9, 0x3e, 0xe1, 0x8d, 0xa4, 0xbe, 0x59, 0xfa, 0xf3, 0x3d, 
	0x4b, 0x18, 0xfb, 0xbd, 0x14, 0x9a, 0xa2, 0xbe, 0x67, 0x93, 0x69, 0x3e, 
	0x04, 0x5a, 0x8a, 0xbe, 0x46, 0x09, 0x56, 0x3e, 0xd0, 0x09, 0x2f, 0x3e, 
	0x49, 0xd2, 0x7b, 0xbe, 0x74, 0xe9, 0x61, 0xbe, 0x0d, 0xd2, 0x66, 0x3e, 
	0x67, 0xdb, 0x8c, 0x3e, 0xd5, 0x1f, 0xf1, 0xbd, 0x9b, 0x9c, 0xa7, 0x3e, 
	0x06, 0x6e, 0x69, 0xbe, 0x0d, 0xb1, 0x86, 0x3d, 0x94, 0x72, 0xb6, 0xbd, 
	0x33, 0x4e, 0x1f, 0xbe, 0xb8, 0xfd, 0xd5, 0xbd, 0x13, 0x3e, 0xb7, 0x3e, 
	0xba, 0xbe, 0xb1, 0xbe, 0x6b, 0xab, 0xe1, 0x3d, 0x84, 0x12, 0x80, 0xbd, 
	0x7d, 0xb9, 0xe6, 0x3d, 0x1b, 0x0d, 0x3a, 0xbc, 0x7f, 0xc5, 0x6e, 0xbe, 
	0x40, 0xf1, 0xf7, 0xbc, 0x16, 0xe1, 0x0c, 0x3e, 0xd0, 0x91, 0x60, 0x3d, 
	0xbf, 0xa9, 0xce, 0xbd, 0xb5, 0x33, 0xff, 0xbd, 0x16, 0xf3, 0x08, 0x3e, 
	0x01, 0x2a, 0x93, 0x3e, 0xff, 0xcd, 0xf9, 0xbd, 0xc0, 0xaa, 0xc7, 0x3c, 
	0x0d, 0x14, 0xa1, 0xbe, 0x10, 0xcc, 0x79, 0x3d, 0x02, 0x66, 0x21, 0xbe, 
	0xa0, 0x0d, 0x4a, 0xbe, 0xcc, 0xd7, 0x0c, 0xbe, 0xb2, 0x8d, 0xa1, 0xbc, 
	0xf4, 0x20, 0x8b, 0xbe, 0x5c, 0xf6, 0x37, 0xbe, 0x31, 0x6e, 0x62, 0xbe, 
	0xa4, 0x05, 0x81, 0xbd, 0xc0, 0x52, 0xf8, 0xbd, 0x82, 0x59, 0x95, 0xbe, 
	0x57, 0x8a, 0x36, 0x3e, 0x54, 0x54, 0x97, 0x3e, 0x25, 0x4c, 0x23, 0x3e, 
	0xb5, 0xad, 0x21, 0x3e, 0x81, 0x2e, 0xeb, 0xbd, 0x4f, 0x65, 0x63, 0xbe, 
	0x55, 0x73, 0x40, 0xbe, 0xcb, 0xf7, 0x98, 0xbd, 0x2c, 0x6b, 0xa7, 0xbd, 
	0xed, 0xcc, 0xb6, 0x3d, 0x67, 0x2d, 0x00, 0xbe, 0x40, 0xc6, 0x06, 0x3e, 
	0x4c, 0xa9, 0x20, 0x3e, 0x2c, 0x44, 0x18, 0xbe, 0xa4, 0x91, 0xf7, 0x3d, 
	0xe3, 0x52, 0x53, 0xbd, 0xc8, 0x77, 0x9b, 0xbd, 0x8e, 0x49, 0xa7, 0x3e, 
	0xee, 0x09, 0x8a, 0x3e, 0x47, 0x04, 0x56, 0x3e, 0xc8, 0x15, 0x28, 0xbe, 
	0x34, 0x85, 0x68, 0x3e, 0x8e, 0xf4, 0x91, 0xbe, 0x29, 0xfe, 0x19, 0x3e, 
	0x39, 0x66, 0xcd, 0x3c, 0xf0, 0xcd, 0x7b, 0xbd, 0xc2, 0xe5, 0x6d, 0x3c, 
	0x44, 0x6a, 0x8e, 0xbe, 0x48, 0xd0, 0xc5, 0x3d, 0x00, 0x32, 0xe0, 0x3a, 
	0xa1, 0x3f, 0xa4, 0xbe, 0x47, 0xc0, 0xa6, 0xbe, 0x5a, 0x1f, 0x34, 0x3e, 
	0x8f, 0xc6, 0xab, 0xbe, 0xeb, 0x35, 0x20, 0x3e, 0xe4, 0xd2, 0x33, 0x3d, 
	0x65, 0xd4, 0x39, 0xbe, 0xb1, 0xa1, 0xd3, 0xbd, 0x3d, 0xa7, 0x98, 0xbe, 
	0x5e, 0x8f, 0x8e, 0xbe, 0x7c, 0x25, 0x46, 0xbd, 0x43, 0xb9, 0xa9, 0x3d, 
	0x84, 0xca, 0x41, 0x3e, 0xe0, 0x9c, 0x4f, 0xbe, 0xdf, 0x2a, 0xad, 0xbe, 
	0xce, 0xe8, 0xb2, 0xbe, 0x27, 0x83, 0x91, 0x3d, 0x8b, 0x90, 0x83, 0x3e, 
	0xc4, 0xff, 0x96, 0x3c, 0xb1, 0x67, 0x22, 0xbd, 0xd1, 0x85, 0x9f, 0xbe, 
	0xb2, 0xae, 0x3c, 0x3e, 0xff, 0x67, 0x38, 0x3e, 0x99, 0x3d, 0xf7, 0xbd, 
	0xee, 0xfe, 0x90, 0xbe, 0x43, 0x29, 0xa1, 0x3e, 0x3b, 0xbd, 0xeb, 0x3e, 
	0x7c, 0xa2, 0xff, 0x3c, 0xa6, 0x8d, 0x60, 0x3e, 0xbb, 0xff, 0xc7, 0xbd, 
	0xa1, 0x84, 0x01, 0xbe, 0xe9, 0xae, 0xa7, 0xbd, 0x61, 0x33, 0x8a, 0xbe, 
	0xd7, 0xae, 0x61, 0x3e, 0x18, 0x30, 0x7d, 0x3e, 0xb8, 0x03, 0x6b, 0xbe, 
	0x71, 0x54, 0x35, 0x3e, 0xfe, 0xab, 0x6a, 0xbe, 0x73, 0x57, 0xff, 0xbd, 
	0x1d, 0x35, 0xb2, 0x3d, 0x55, 0x65, 0x80, 0xbe, 0x6e, 0xc6, 0xb0, 0x3e, 
	0x78, 0x64, 0x8b, 0x3e, 0xbf, 0xff, 0xb2, 0xbe, 0x3c, 0xf9, 0xa8, 0x3c, 
	0x8e, 0xcc, 0x4d, 0x3d, 0xf9, 0xda, 0x89, 0xbd, 0x18, 0xdd, 0xa0, 0xbc, 
	0x5f, 0x4c, 0x0c, 0xbe, 0xef, 0x65, 0x52, 0x3e, 0x06, 0xe9, 0x87, 0xbe, 
	0x71, 0xa7, 0xe1, 0x3d, 0x89, 0x38, 0x94, 0x3e, 0x0e, 0x17, 0x18, 0x3e, 
	0xc8, 0x08, 0xac, 0xbd, 0x06, 0xa7, 0x41, 0xbe, 0xb6, 0xad, 0x8f, 0x3e, 
	0x72, 0xed, 0x72, 0x3d, 0x07, 0xfe, 0xaf, 0x3e, 0x34, 0x0c, 0xbc, 0xbe, 
	0xdc, 0x87, 0x3e, 0x3d, 0x05, 0x25, 0x21, 0x3e, 0xb2, 0x26, 0xa3, 0x3e, 
	0x6b, 0xb6, 0x8b, 0xbe, 0x0f, 0x77, 0x90, 0x3e, 0xe4, 0x15, 0x81, 0x3d, 
	0xc1, 0x02, 0xba, 0x3d, 0x2e, 0x55, 0x24, 0xbd, 0x0d, 0x30, 0x8b, 0xbe, 
	0xaf, 0x49, 0xd0, 0xbd, 0xa8, 0x5d, 0x65, 0x3d, 0xd0, 0x8a, 0x64, 0x3d, 
	0xe3, 0x9a, 0x1c, 0x3d, 0x01, 0x21, 0x10, 0x3e, 0x78, 0x85, 0x09, 0xbe, 
	0x50, 0x22, 0x1e, 0xbe, 0x21, 0x29, 0x00, 0x3e, 0xaa, 0x22, 0x9f, 0xbe, 
	0x70, 0x96, 0xc1, 0xbd, 0xb3, 0xed, 0x9e, 0xbd, 0xfe, 0x1c, 0x5f, 0x3d, 
	0x6b, 0x06, 0xb0, 0xbc, 0xa1, 0x6e, 0xb0, 0x3d, 0x5c, 0xca, 0xa4, 0x3d, 
	0x7a, 0x09, 0xee, 0x3d, 0xa4, 0xe0, 0x48, 0xbe, 0xc3, 0xd5, 0x22, 0x3d, 
	0xc8, 0x71, 0x17, 0xbe, 0x66, 0x13, 0x5c, 0x3e, 0xee, 0x30, 0x8b, 0xbe, 
	0xc9, 0xf9, 0x0d, 0xbe, 0xb6, 0x5a, 0xf1, 0x3c, 0x67, 0x21, 0x97, 0xbe, 
	0xe8, 0xd5, 0x59, 0x3e, 0x45, 0xb3, 0x3a, 0xbe, 0x57, 0x94, 0xf6, 0xbd, 
	0x36, 0xd6, 0x7b, 0x3e, 0xde, 0xe1, 0x2f, 0x3e, 0xb1, 0x99, 0xc7, 0xbd, 
	0x41, 0x35, 0x09, 0x3e, 0x9f, 0x5b, 0xad, 0xbe, 0x65, 0xa9, 0xf7, 0x3d, 
	0x4b, 0x9c, 0x4c, 0x3e, 0x45, 0x32, 0xba, 0xbc, 0xae, 0x06, 0xa5, 0x3e, 
	0x93, 0xfb, 0x93, 0xbe, 0x33, 0x6a, 0x0e, 0x3e, 0xca, 0x9d, 0x6e, 0x3e, 
	0xda, 0x8f, 0xb6, 0xbc, 0x7c, 0x44, 0x24, 0x3e, 0x8d, 0x98, 0x88, 0x3e, 
	0x52, 0x20, 0xd3, 0x3c, 0x3f, 0x26, 0xc1, 0xbc, 0xd6, 0x04, 0x17, 0x3e, 
	0xd4, 0x97, 0xad, 0x3e, 0x58, 0xa4, 0x83, 0xbe, 0x9e, 0x66, 0x39, 0x3e, 
	0xc3, 0x77, 0x97, 0xbe, 0xd7, 0x6d, 0x98, 0xbd, 0xa4, 0xe4, 0xba, 0xbe, 
	0xe9, 0x74, 0xd7, 0xbd, 0xb2, 0x4f, 0x5d, 0xbd, 0xe3, 0xb8, 0x10, 0x3e, 
	0x4f, 0x42, 0x80, 0xbe, 0x85, 0x7c, 0x26, 0xbe, 0x94, 0x25, 0xdc, 0x3d, 
	0x6e, 0x37, 0x82, 0x3e, 0x9f, 0xaf, 0x94, 0x3e, 0xea, 0x76, 0x45, 0x3e, 
	0xfe, 0xfc, 0xe9, 0x3d, 0xfe, 0xa3, 0xd0, 0xbe, 0x23, 0x6e, 0xff, 0xbd, 
	0x8d, 0x01, 0x12, 0xbd, 0xa2, 0x96, 0x06, 0xbe, 0xf4, 0xc9, 0x07, 0x3e, 
	0x01, 0xa6, 0xcb, 0x3d, 0xa9, 0x12, 0x14, 0x3e, 0x53, 0x6a, 0xa4, 0xbe, 
	0x2f, 0x33, 0x3a, 0x3e, 0xc2, 0xdb, 0x7c, 0xbe, 0x2b, 0x4c, 0x69, 0xbe, 
	0x47, 0x12, 0xa0, 0x3e, 0x24, 0x4e, 0x4c, 0x3e, 0x5e, 0xc2, 0x81, 0x3e, 
	0xa5, 0x63, 0xb2, 0xbe, 0x29, 0xe6, 0x3b, 0xbe, 0x70, 0x0d, 0x13, 0x3e, 
	0xba, 0x9b, 0xf5, 0xbe, 0xea, 0xe2, 0xed, 0x3d, 0xce, 0xb0, 0x92, 0xbe, 
	0x83, 0xa0, 0x05, 0x3e, 0xf9, 0xe4, 0x7d, 0x3e, 0xc2, 0xb0, 0x61, 0xbe, 
	0xe1, 0x4d, 0x7e, 0x3e, 0xd4, 0x90, 0x47, 0xbe, 0x5b, 0x17, 0x67, 0x3d, 
	0xae, 0x05, 0x86, 0x3e, 0x53, 0x8e, 0x7a, 0x3c, 0x0e, 0x7b, 0xa9, 0x3e, 
	0x64, 0xf9, 0x47, 0xbe, 0x2b, 0x39, 0x8d, 0x3e, 0xd9, 0x98, 0x9b, 0x3e, 
	0x83, 0x4d, 0xa8, 0xbd, 0x03, 0x3e, 0x98, 0x3e, 0x60, 0x6e, 0x93, 0x3e, 
	0x37, 0xb6, 0x85, 0xbe, 0x0b, 0x52, 0x8e, 0x3d, 0xf9, 0xf7, 0x23, 0x3d, 
	0xd0, 0x6e, 0x73, 0xbe, 0x63, 0x1f, 0x6b, 0x3e, 0x30, 0x90, 0x69, 0xbe, 
	0xbe, 0xf9, 0x2a, 0xbe, 0x71, 0x83, 0x16, 0xbe, 0x63, 0x53, 0x8b, 0x3e, 
	0xf9, 0x7f, 0x99, 0xbd, 0xa6, 0x38, 0x41, 0xbe, 0x88, 0xe1, 0x86, 0x3e, 
	0x2d, 0x9c, 0xc8, 0xbd, 0x70, 0x45, 0xd7, 0x3d, 0xc2, 0x7c, 0x5f, 0xbe, 
	0xb5, 0x4c, 0xa8, 0xbd, 0x84, 0xc1, 0x96, 0x3e, 0xbf, 0x44, 0x27, 0xbb, 
	0x3f, 0x82, 0xfa, 0xbd, 0xd1, 0x13, 0xf9, 0x3d, 0x4a, 0x52, 0x3a, 0x3e, 
	0xdd, 0xa8, 0x06, 0xbe, 0xb1, 0x60, 0x1d, 0xbe, 0x79, 0x11, 0x47, 0xbe, 
	0x3c, 0xc6, 0x88, 0x3e, 0x53, 0xba, 0xb2, 0xbd, 0x12, 0x2e, 0x78, 0xbe, 
	0x30, 0x9c, 0x58, 0x3d, 0x82, 0x4d, 0x12, 0x3e, 0x87, 0x7c, 0x5e, 0x3e, 
	0xde, 0x42, 0x40, 0x3e, 0x86, 0x49, 0x58, 0x3e, 0x48, 0x13, 0x56, 0x3e, 
	0xc7, 0x6e, 0x6e, 0xbd, 0xbf, 0x3a, 0x44, 0xbe, 0x90, 0x26, 0x26, 0xbe, 
	0x36, 0xa1, 0x79, 0xbe, 0x0b, 0xf6, 0x33, 0x3e, 0xd1, 0x94, 0x69, 0x3e, 
	0x7a, 0xb0, 0x3c, 0xbe, 0xba, 0xff, 0x04, 0xbe, 0x2d, 0xb1, 0x61, 0xbb, 
	0xf9, 0x09, 0x83, 0x3e, 0xb9, 0x69, 0xe2, 0xbe, 0x42, 0x38, 0xd7, 0xbc, 
	0x28, 0x38, 0xd2, 0x3d, 0x6c, 0xb4, 0x3a, 0xbe, 0xec, 0x28, 0x39, 0xbe, 
	0x58, 0x69, 0x3c, 0xbd, 0xe0, 0x7f, 0x51, 0xbc, 0x76, 0x8f, 0x91, 0xbe, 
	0x86, 0xbb, 0x40, 0x3e, 0x20, 0x34, 0x0c, 0x3c, 0x8e, 0x3c, 0x77, 0xbe, 
	0x0a, 0x98, 0xea, 0xbd, 0x60, 0xb0, 0x56, 0x3d, 0x90, 0x9d, 0xc8, 0x3d, 
	0x5d, 0xa6, 0x87, 0xbe, 0x50, 0xbf, 0x52, 0x3d, 0x51, 0x0a, 0x99, 0xbe, 
	0x80, 0x3b, 0x37, 0xbd, 0xde, 0xcd, 0x6e, 0x3e, 0x32, 0x1e, 0x5a, 0x3e, 
	0x45, 0x08, 0x39, 0xbe, 0x36, 0x3a, 0x88, 0xbe, 0xc8, 0xe5, 0x77, 0x3d, 
	0xcb, 0xb7, 0x11, 0xbe, 0x66, 0xb2, 0xb8, 0x3d, 0xaa, 0x31, 0x5f, 0xbd, 
	0x15, 0x61, 0x0f, 0x3e, 0xaa, 0x7a, 0xa7, 0xbe, 0x24, 0x92, 0xd2, 0x3e, 
	0xf4, 0x6b, 0x34, 0xbe, 0x13, 0x4c, 0x3b, 0xbc, 0xe5, 0xbd, 0xcd, 0xbd, 
	0x6f, 0x7b, 0xbf, 0xbe, 0xc6, 0x6e, 0x21, 0xbe, 0xd3, 0x86, 0xbe, 0x3e, 
	0x80, 0x5b, 0x4f, 0x3c, 0x99, 0xbb, 0x24, 0x3e, 0x5c, 0x3e, 0x47, 0x3e, 
	0x14, 0x1f, 0x84, 0x3e, 0x0b, 0x17, 0xc8, 0x3d, 0x83, 0x52, 0x8b, 0xbe, 
	0xb7, 0xda, 0x99, 0x3e, 0x26, 0x63, 0x4b, 0xbe, 0x17, 0x6c, 0x33, 0x3e, 
	0x3e, 0xf5, 0x34, 0x3e, 0x8e, 0xea, 0xf9, 0xbd, 0xd4, 0xdc, 0x39, 0x3e, 
	0xa3, 0xc2, 0x91, 0x3e, 0xa6, 0xdc, 0x5c, 0xbd, 0xe7, 0xf7, 0x9b, 0x3d, 
	0xce, 0x28, 0xa9, 0x3d, 0x8d, 0x2c, 0x09, 0xbe, 0x04, 0xd3, 0x1d, 0x3e, 
	0x40, 0x0b, 0xa3, 0xbe, 0xe4, 0x9e, 0x58, 0x3e, 0x07, 0xfc, 0xa0, 0xbd, 
	0x1b, 0xff, 0xf9, 0xbd, 0x7d, 0xf6, 0xad, 0x3d, 0x95, 0xa3, 0xd5, 0xbe, 
	0x5f, 0x62, 0x6d, 0x3d, 0xbe, 0x79, 0xec, 0x3d, 0xae, 0x5b, 0x17, 0xbe, 
	0xa2, 0x9b, 0x7c, 0x3d, 0xf7, 0xb5, 0x94, 0x3e, 0x31, 0x6d, 0x39, 0xbe, 
	0xf2, 0x08, 0xe0, 0x3c, 0x87, 0x51, 0xb2, 0x3e, 0xa0, 0x76, 0x76, 0x3e, 
	0x5d, 0xbe, 0xea, 0xbd, 0xb0, 0x12, 0xe2, 0x3d, 0x20, 0x32, 0x8b, 0xbe, 
	0x5f, 0x7d, 0xe1, 0x3d, 0x06, 0x57, 0x11, 0x3e, 0x81, 0x25, 0x03, 0x3e, 
	0x38, 0x10, 0x20, 0xbe, 0x87, 0xbb, 0xc4, 0x3e, 0xf1, 0x7d, 0x8e, 0x3e, 
	0x59, 0xab, 0x94, 0x3e, 0xd6, 0x46, 0x42, 0xbe, 0x1c, 0x87, 0x75, 0xbe, 
	0x2b, 0x33, 0x88, 0xbd, 0xe4, 0x83, 0x92, 0x3d, 0x04, 0xd8, 0xd7, 0x3d, 
	0x20, 0x82, 0xad, 0xbc, 0x70, 0x8e, 0xbe, 0xbd, 0x3e, 0x79, 0x3c, 0xbe, 
	0xb2, 0xe6, 0x9a, 0xbe, 0x53, 0x11, 0x9e, 0xbe, 0xa0, 0x37, 0xf6, 0xbd, 
	0x02, 0xf2, 0x8b, 0xbe, 0xc9, 0x59, 0x88, 0xbe, 0x18, 0xf6, 0x7f, 0x3d, 
	0x19, 0x64, 0x97, 0x3e, 0x3e, 0x20, 0x50, 0x3e, 0xa8, 0x54, 0x0c, 0x3e, 
	0x13, 0x90, 0x40, 0xbe, 0x00, 0x85, 0x85, 0xbe, 0x0a, 0xc9, 0x44, 0xbe, 
	0xa0, 0x0b, 0x3b, 0xbe, 0xe4, 0x0d, 0x03, 0x3e, 0xa4, 0xe6, 0xc9, 0xbd, 
	0x2e, 0xcd, 0x3c, 0x3e, 0x18, 0xce, 0x82, 0x3d, 0xf7, 0xa1, 0x2e, 0x3e, 
	0x9b, 0x92, 0xd8, 0xbd, 0xda, 0x61, 0x9a, 0x3d, 0x14, 0x6a, 0x9f, 0x3e, 
	0xf5, 0xca, 0x7f, 0xbe, 0x6f, 0xab, 0x33, 0xbe, 0xb6, 0xcb, 0x8f, 0x3d, 
	0xd1, 0x11, 0x5a, 0x3e, 0x3c, 0xd6, 0xe6, 0x3d, 0x57, 0xe0, 0x27, 0xbe, 
	0x23, 0x3f, 0xd3, 0xbd, 0x5a, 0x9a, 0xc5, 0x3e, 0x59, 0xd6, 0x34, 0x3e, 
	0x27, 0xca, 0x71, 0x3c, 0x43, 0xed, 0x8d, 0xbc, 0x43, 0xe6, 0x84, 0x3e, 
	0xe1, 0xc6, 0x92, 0x3e, 0x1a, 0x2b, 0x23, 0x3e, 0x35, 0x24, 0x06, 0x3e, 
	0x61, 0xb2, 0xff, 0xbc, 0xe1, 0xc8, 0x98, 0x3d, 0x79, 0xf7, 0xea, 0xbe, 
	0xbd, 0x61, 0x11, 0x3d, 0xa3, 0x8c, 0xdf, 0x3d, 0xd9, 0xee, 0x17, 0x3e, 
	0x4d, 0xfe, 0x0b, 0x3e, 0x41, 0x2b, 0x94, 0xbd, 0x3e, 0xb7, 0xef, 0xbd, 
	0xef, 0xa2, 0x44, 0xbe, 0x5a, 0xa8, 0xbe, 0xbe, 0xe6, 0xa1, 0x93, 0xbd, 
	0xc4, 0x9f, 0x3d, 0xbe, 0x3e, 0x41, 0xfb, 0x3e, 0xb6, 0x80, 0x0c, 0x3e, 
	0x98, 0x94, 0x7d, 0x3e, 0xb9, 0x12, 0xaf, 0x3e, 0x74, 0x79, 0x9c, 0xbd, 
	0x93, 0xbc, 0x97, 0x3e, 0xb5, 0x3e, 0x92, 0x3e, 0x57, 0x1b, 0x29, 0xbe, 
	0xc9, 0xfa, 0xb1, 0x3d, 0x6f, 0x8d, 0x43, 0xbe, 0xc7, 0x12, 0x19, 0x3e, 
	0x97, 0xde, 0x01, 0x3e, 0x39, 0xee, 0xd1, 0xbd, 0xee, 0xcb, 0x37, 0xbd, 
	0xda, 0x39, 0x01, 0x3e, 0x7b, 0x79, 0x9a, 0xbd, 0x0b, 0xd0, 0x87, 0xbe, 
	0x08, 0x7d, 0xa5, 0xbc, 0x5a, 0xdc, 0x2a, 0x3e, 0x57, 0xc4, 0xb3, 0x3e, 
	0x5e, 0x6d, 0xd2, 0xbc, 0xb2, 0x17, 0xeb, 0x3c, 0x4d, 0x3d, 0xa4, 0x3e, 
	0xd4, 0x51, 0x7a, 0x3e, 0x13, 0x1d, 0x59, 0x3e, 0xa4, 0x59, 0xd8, 0x3d, 
	0x8c, 0xce, 0x75, 0x3e, 0xe0, 0x14, 0xab, 0x3e, 0x14, 0x19, 0x6e, 0x3e, 
	0xa0, 0xb8, 0x1f, 0x3d, 0xc3, 0xbc, 0xc5, 0x3c, 0x49, 0x70, 0x36, 0xbe, 
	0x41, 0xa7, 0xd3, 0x3d, 0xe8, 0xc0, 0x80, 0x3e, 0x60, 0xd0, 0x98, 0x3e, 
	0x8e, 0x97, 0x07, 0xbd, 0xf0, 0x8b, 0xbd, 0xbd, 0x04, 0x87, 0xa5, 0x3e, 
	0x74, 0xc1, 0x0a, 0xbe, 0xd4, 0x2b, 0xe4, 0xbd, 0x66, 0xc7, 0x06, 0x3e, 
	0x7f, 0xba, 0x8e, 0x3e, 0xf3, 0x6b, 0xd0, 0x3d, 0x02, 0x1a, 0x33, 0x3e, 
	0xca, 0xba, 0x29, 0x3c, 0x25, 0x37, 0x80, 0x3e, 0x02, 0xfd, 0x7c, 0xbe, 
	0x9a, 0xfc, 0xff, 0xff, 0x04, 0x00, 0x00, 0x00, 0xf0, 0x00, 0x00, 0x00, 
	0x3f, 0xa2, 0xeb, 0xbe, 0x75, 0xe6, 0x01, 0xbf, 0xfb, 0xf2, 0xdd, 0xbe, 
	0x88, 0xda, 0xa6, 0xbe, 0x03, 0xb5, 0xa7, 0xbe, 0x98, 0xef, 0xa7, 0xbe, 
	0x39, 0xbe, 0xba, 0x3e, 0xad, 0xd6, 0xa0, 0x3e, 0xdc, 0x23, 0xec, 0x3e, 
	0xb8, 0x4a, 0x53, 0x3e, 0x17, 0x9c, 0xb6, 0x3d, 0x28, 0x93, 0xa1, 0x3d, 
	0x6e, 0x54, 0x33, 0x3e, 0x77, 0xad, 0xe3, 0x3e, 0x4c, 0x70, 0x3c, 0x3e, 
	0xf8, 0x9c, 0x06, 0x3f, 0xc8, 0xae, 0x71, 0x3e, 0xc0, 0x95, 0xc0, 0xbe, 
	0x56, 0x05, 0x0d, 0x3e, 0x9b, 0x2c, 0xa2, 0xbc, 0xb8, 0x76, 0xeb, 0x3d, 
	0x78, 0xe3, 0x31, 0xbe, 0x84, 0xb8, 0xb5, 0x3e, 0x0c, 0x00, 0xe7, 0x3e, 
	0xb1, 0xcd, 0x6c, 0xbd, 0x7e, 0xc5, 0x46, 0xbd, 0x20, 0x28, 0x48, 0xbd, 
	0x3c, 0x15, 0xfe, 0x3e, 0xb0, 0x0e, 0x03, 0xbe, 0x90, 0x0d, 0xb0, 0xbe, 
	0x71, 0xe5, 0xa7, 0x3e, 0xcf, 0xe9, 0xe8, 0x3e, 0xa0, 0xb7, 0x26, 0x3d, 
	0x83, 0xc1, 0x51, 0x3e, 0xd8, 0x13, 0x03, 0x3e, 0x76, 0x08, 0x8f, 0xbe, 
	0xe3, 0xce, 0x8c, 0x3d, 0xd8, 0xf1, 0x5a, 0xbe, 0x64, 0xda, 0xcd, 0x3e, 
	0x00, 0xfa, 0xc3, 0xbd, 0xf6, 0xec, 0xd2, 0x3d, 0xea, 0x73, 0xfe, 0x3e, 
	0xf4, 0x65, 0xe0, 0xbe, 0xa7, 0x0e, 0x02, 0x3e, 0xbd, 0xc2, 0xce, 0xbe, 
	0xc6, 0x0b, 0xf4, 0xbe, 0x84, 0x6c, 0x08, 0xbf, 0x68, 0x3d, 0x87, 0x3d, 
	0x94, 0x9d, 0xcb, 0x3e, 0x0b, 0x59, 0x1d, 0xbf, 0x92, 0x3a, 0xd3, 0x3e, 
	0x9d, 0x3f, 0xe4, 0xbe, 0x53, 0x5b, 0x17, 0xbf, 0x16, 0x77, 0x8d, 0x3e, 
	0x3b, 0xb7, 0xb8, 0xbe, 0x28, 0x96, 0xe9, 0xbe, 0xb0, 0x64, 0x33, 0xbd, 
	0xb1, 0x31, 0x89, 0xbe, 0x2f, 0xfe, 0xef, 0xbe, 0x3a, 0xd4, 0x20, 0xbe, 
	0x96, 0xfd, 0xff, 0xff, 0x04, 0x00, 0x00, 0x00, 0x50, 0x00, 0x00, 0x00, 
	0xf8, 0x52, 0x3d, 0x3d, 0x4b, 0x80, 0x23, 0x3d, 0xf3, 0x1a, 0x41, 0x3d, 
	0xb4, 0xf3, 0x32, 0x3e, 0xbb, 0x36, 0xf7, 0x3d, 0xbb, 0xff, 0x24, 0xbe, 
	0x25, 0x43, 0x3e, 0x3e, 0xf5, 0x5e, 0xdf, 0xbd, 0x93, 0x1f, 0x1b, 0x3e, 
	0xfd, 0x17, 0x13, 0xbe, 0x06, 0xac, 0x01, 0x3d, 0xe0, 0x73, 0x08, 0x3e, 
	0x42, 0xea, 0xc2, 0x3d, 0x41, 0xc0, 0x1c, 0xbe, 0xd7, 0xdf, 0xc6, 0x3d, 
	0x10, 0xae, 0xbc, 0x3d, 0x2b, 0x4f, 0xde, 0x3d, 0xbc, 0xac, 0x82, 0x3d, 
	0x22, 0xb4, 0x12, 0xbe, 0x1e, 0x70, 0xbd, 0x3d, 0xf2, 0xfd, 0xff, 0xff, 
	0x04, 0x00, 0x00, 0x00, 0x08, 0x00, 0x00, 0x00, 0xde, 0x9d, 0x01, 0x3d, 
	0xa3, 0x82, 0x84, 0x3d, 0x06, 0xfe, 0xff, 0xff, 0x04, 0x00, 0x00, 0x00, 
	0x40, 0x01, 0x00, 0x00, 0x79, 0x0f, 0x70, 0x3d, 0xe0, 0x91, 0xe7, 0x3d, 
	0x32, 0xc0, 0xc8, 0x3d, 0xfa, 0x11, 0xaf, 0xbb, 0xc0, 0x34, 0x9b, 0x3d, 
	0x00, 0x00, 0x00, 0x00, 0x00, 0x00, 0x00, 0x00, 0x00, 0x00, 0x00, 0x00, 
	0x75, 0xbe, 0x49, 0xbb, 0x00, 0x00, 0x00, 0x00, 0x0b, 0x7f, 0x58, 0x3d, 
	0xdd, 0xdd, 0xb1, 0x3c, 0x82, 0x6f, 0x80, 0xbb, 0x80, 0x16, 0xe8, 0x3c, 
	0x1c, 0xfd, 0x8f, 0x3d, 0x73, 0xaf, 0x78, 0x3d, 0x00, 0x00, 0x00, 0x00, 
	0x6c, 0xfc, 0x8f, 0xbc, 0x00, 0x00, 0x00, 0x00, 0xf6, 0x74, 0xa0, 0xbc, 
	0xdc, 0x2f, 0x7b, 0x3d, 0x00, 0x00, 0x00, 0x00, 0x1e, 0xc3, 0x3e, 0xbc, 
	0x00, 0x00, 0x00, 0x00, 0x39, 0x1f, 0x74, 0x3d, 0x00, 0x00, 0x00, 0x00, 
	0xf2, 0xc5, 0xc4, 0xbb, 0x62, 0xb1, 0x7e, 0x3d, 0xad, 0xe9, 0xcb, 0x3d, 
	0xab, 0xb7, 0xdb, 0xbd, 0xa5, 0x98, 0x6d, 0xbd, 0xc1, 0x26, 0x67, 0x3d, 
	0x98, 0x7a, 0x9b, 0x3d, 0x9f, 0x83, 0x13, 0x3d, 0x36, 0xd3, 0x92, 0x3d, 
	0x66, 0x29, 0x0a, 0x3e, 0x56, 0x0b, 0x02, 0xbd, 0xfb, 0x8d, 0xa2, 0xbd, 
	0xc6, 0x5e, 0x4f, 0x3d, 0xe2, 0xb4, 0xbe, 0xbc, 0xf9, 0x30, 0x75, 0xbc, 
	0x15, 0x31, 0xf2, 0xbc, 0x40, 0x20, 0xaf, 0xbb, 0x80, 0xe4, 0x0e, 0x3e, 
	0x4f, 0x96, 0x9a, 0x3d, 0x57, 0x89, 0x49, 0x3d, 0x00, 0x00, 0x00, 0x00, 
	0x4c, 0x43, 0x48, 0x3d, 0x9b, 0x78, 0x80, 0x3d, 0x43, 0x3d, 0x95, 0xbc, 
	0xb7, 0xc1, 0xf3, 0x3c, 0x4d, 0xb3, 0xa3, 0x3c, 0x00, 0x00, 0x00, 0x00, 
	0x78, 0xa0, 0x02, 0xbd, 0xe3, 0xa0, 0x0f, 0xbd, 0xe7, 0x48, 0xff, 0x3c, 
	0x8d, 0xb6, 0x7f, 0x3d, 0xaf, 0xb3, 0xbc, 0xbd, 0xcd, 0xcd, 0x4e, 0x3d, 
	0x6b, 0xa5, 0x0f, 0x3e, 0x82, 0x02, 0x97, 0xbc, 0xfe, 0x94, 0xc8, 0x3d, 
	0xe7, 0x96, 0x91, 0xbc, 0x40, 0x72, 0x47, 0x3d, 0x29, 0x88, 0xab, 0xbc, 
	0xce, 0x61, 0xc7, 0x3c, 0x76, 0x02, 0xad, 0x3d, 0xb1, 0x1f, 0x77, 0xbc, 
	0xfc, 0xfd, 0xc6, 0xbc, 0x36, 0x31, 0x94, 0xbb, 0x06, 0xdd, 0x4d, 0x3c, 
	0xbe, 0xff, 0x0c, 0x3e, 0xa1, 0x76, 0xe9, 0x3d, 0xd5, 0x6e, 0xd6, 0xbb, 
	0xaa, 0x41, 0xf1, 0x3d, 0x8e, 0x7b, 0xf9, 0xbc, 0x58, 0xad, 0x8e, 0xbd, 
	0xe6, 0xe5, 0x71, 0x3d, 0x45, 0x60, 0x7c, 0x3d, 0x04, 0xa1, 0x4d, 0xbc, 
	0x52, 0xff, 0xff, 0xff, 0x04, 0x00, 0x00, 0x00, 0xa0, 0x00, 0x00, 0x00, 
	0x7b, 0x67, 0x5f, 0xbd, 0xb9, 0xb0, 0xee, 0x3d, 0x4c, 0x6d, 0xb1, 0x3d, 
	0x93, 0x0e, 0x15, 0x3c, 0x00, 0x00, 0x00, 0x00, 0x17, 0x93, 0xc0, 0x3d, 
	0xfa, 0x3f, 0x37, 0xbc, 0xa8, 0x98, 0x9a, 0x3d, 0xd1, 0xde, 0x18, 0xbd, 
	0xc0, 0xf8, 0x25, 0x3e, 0x00, 0x00, 0x00, 0x00, 0x6f, 0xf8, 0x88, 0x3d, 
	0xfc, 0x31, 0x87, 0x3d, 0xbb, 0xc6, 0xbf, 0x3d, 0x3e, 0x76, 0xaf, 0xbc, 
	0xa3, 0x90, 0x35, 0x3e, 0x54, 0x5f, 0x96, 0x3d, 0xc7, 0x30, 0x37, 0x3e, 
	0xac, 0xaf, 0x96, 0xbc, 0x3d, 0x6e, 0xba, 0x3d, 0xff, 0x9d, 0xd8, 0xbc, 
	0x0d, 0x15, 0x3b, 0x3d, 0x4e, 0x4f, 0x2d, 0x3e, 0x8a, 0x23, 0xee, 0x3d, 
	0x77, 0xbc, 0x0a, 0xbd, 0x1e, 0x34, 0x8a, 0x3d, 0x8b, 0xcb, 0x09, 0x3e, 
	0x2d, 0x1e, 0x83, 0x3d, 0xbe, 0x7f, 0x63, 0x3d, 0x35, 0x22, 0x33, 0x3e, 
	0xb6, 0xb2, 0x75, 0x3d, 0x00, 0x00, 0x00, 0x00, 0x67, 0xbe, 0x9d, 0x3d, 
	0x9e, 0x69, 0x29, 0x3d, 0xa0, 0x6d, 0xf8, 0x3c, 0x00, 0x00, 0x00, 0x00, 
	0xab, 0xe4, 0x87, 0x3d, 0x4f, 0x75, 0xe7, 0xbb, 0x94, 0x5b, 0x70, 0x3d, 
	0xdf, 0x4d, 0x20, 0xbc, 0x00, 0x00, 0x06, 0x00, 0x08, 0x00, 0x04, 0x00, 
	0x06, 0x00, 0x00, 0x00, 0x04, 0x00, 0x00, 0x00, 0x80, 0x02, 0x00, 0x00, 
	0x00, 0xe8, 0x11, 0x3e, 0x32, 0x64, 0xdc, 0xbe, 0x01, 0x32, 0xa9, 0xbe, 
	0x3f, 0x5c, 0x0e, 0x3e, 0x7c, 0x03, 0xe1, 0xbc, 0xa6, 0xa2, 0x2d, 0x3e, 
	0x10, 0x30, 0x0d, 0x3e, 0x7a, 0x47, 0x14, 0x3e, 0x3f, 0xfe, 0x66, 0xbe, 
	0x4c, 0xb0, 0x4d, 0xbe, 0x85, 0x04, 0xfc, 0x3d, 0x1a, 0xc8, 0xc8, 0xbe, 
	0x5c, 0x87, 0x8f, 0x3e, 0x74, 0xe8, 0x95, 0x3e, 0xfd, 0x56, 0x37, 0x3e, 
	0x47, 0xe6, 0xf7, 0x3d, 0x68, 0x2d, 0x1a, 0x3d, 0x5c, 0xb9, 0x8e, 0xbe, 
	0x28, 0x5b, 0x10, 0xbd, 0x10, 0x2a, 0x10, 0xbe, 0x17, 0xdb, 0x21, 0x3e, 
	0x30, 0xe9, 0x59, 0x3d, 0x0c, 0x7c, 0xf2, 0x3d, 0xc0, 0xc3, 0x88, 0xbc, 
	0x57, 0xb6, 0xf6, 0x3d, 0x80, 0x6d, 0x95, 0x3d, 0xef, 0x7f, 0xb4, 0x3d, 
	0x50, 0xf4, 0x96, 0x3d, 0x4e, 0x64, 0x9d, 0xbd, 0x83, 0xb5, 0x9c, 0x3e, 
	0x58, 0x60, 0x72, 0x3e, 0x80, 0x41, 0x4d, 0x3e, 0xeb, 0x15, 0x03, 0xbf, 
	0x73, 0xd6, 0x3e, 0x3e, 0x3c, 0x75, 0x37, 0x3e, 0x2f, 0xf7, 0xa3, 0x3c, 
	0xf9, 0xe5, 0x75, 0xbe, 0xe7, 0x40, 0xe0, 0x3d, 0x20, 0x5f, 0x84, 0x3e, 
	0x9a, 0x2f, 0x7f, 0xbe, 0x94, 0x48, 0x31, 0xbe, 0x81, 0xf2, 0xaf, 0x3e, 
	0xe8, 0x06, 0xc9, 0xbd, 0x30, 0xd0, 0x4f, 0x3d, 0x77, 0x9e, 0xc0, 0x3d, 
	0xc8, 0x6c, 0x53, 0x3e, 0x9e, 0x83, 0xe2, 0xbd, 0xb0, 0xc9, 0x79, 0x3e, 
	0x5c, 0xcf, 0xa6, 0x3d, 0x72, 0x66, 0x22, 0xbe, 0x4a, 0xc1, 0x8e, 0x3e, 
	0x73, 0x65, 0xa2, 0x3e, 0xa8, 0x74, 0x4c, 0xbe, 0x25, 0x72, 0xd3, 0x3d, 
	0x39, 0xec, 0x17, 0xbe, 0x58, 0x87, 0x4a, 0x3e, 0x7b, 0xfa, 0x63, 0x3e, 
	0x83, 0xa5, 0x9c, 0x3e, 0xf0, 0x98, 0x6f, 0x3e, 0x42, 0x88, 0x46, 0xbe, 
	0x4a, 0xc7, 0x61, 0xbe, 0x08, 0x0f, 0x66, 0xbe, 0x3b, 0x78, 0x22, 0x3e, 
	0x96, 0xaa, 0x9f, 0x3e, 0x9b, 0xaa, 0x39, 0xbd, 0xe7, 0xc3, 0xa7, 0xbe, 
	0x4e, 0xf3, 0x68, 0x3e, 0x0f, 0x13, 0x1c, 0x3f, 0x46, 0x75, 0xf3, 0xbd, 
	0xc7, 0x18, 0x37, 0xbf, 0x71, 0x48, 0xfb, 0xbe, 0x95, 0x17, 0x10, 0xbd, 
	0xf6, 0x38, 0xc7, 0xbd, 0x72, 0x58, 0xbb, 0xbe, 0xf0, 0xc7, 0x41, 0xbd, 
	0x10, 0x39, 0x09, 0xbe, 0x04, 0xc1, 0x16, 0x3e, 0xaf, 0x6e, 0x21, 0x3e, 
	0x42, 0xeb, 0x0d, 0x3e, 0x6d, 0x39, 0xb6, 0xbe, 0xee, 0x29, 0x87, 0x3e, 
	0xe4, 0xa7, 0x24, 0x3e, 0x51, 0x77, 0xa7, 0x3e, 0x86, 0x68, 0x2b, 0xbe, 
	0x1a, 0x2e, 0xa2, 0x3e, 0x16, 0x7b, 0x64, 0x3e, 0x51, 0xe2, 0x27, 0xbe, 
	0x88, 0xbe, 0x18, 0xbd, 0x07, 0xf5, 0x7f, 0xbd, 0x79, 0x03, 0x89, 0xbe, 
	0x58, 0x59, 0x93, 0x3d, 0x4b, 0xa5, 0x36, 0x3e, 0x16, 0x01, 0xd0, 0xbd, 
	0x94, 0xdc, 0x9d, 0xbc, 0x89, 0x44, 0x88, 0x3e, 0x29, 0xf9, 0x52, 0x3d, 
	0x18, 0xb8, 0x85, 0x3e, 0xe5, 0x14, 0x34, 0xbe, 0x08, 0x23, 0xd6, 0xbc, 
	0xb1, 0xad, 0x25, 0xbe, 0xbf, 0xea, 0x1c, 0x3e, 0xda, 0x96, 0x94, 0xbd, 
	0x52, 0x99, 0x7c, 0xbe, 0x4a, 0xba, 0xe9, 0xbd, 0x85, 0x1b, 0x74, 0x3e, 
	0xbc, 0xd9, 0xe3, 0xbd, 0xc2, 0x2e, 0x1a, 0xbe, 0x37, 0x88, 0x83, 0x3e, 
	0x55, 0x48, 0x42, 0x3e, 0x51, 0x57, 0x1c, 0xbf, 0xfd, 0xbd, 0x0e, 0xbe, 
	0xef, 0xb5, 0xc2, 0x3d, 0x5a, 0xde, 0x8e, 0xbe, 0x8e, 0x39, 0x8f, 0x3c, 
	0xf1, 0xf8, 0xa9, 0x3e, 0xec, 0xf9, 0x77, 0x3e, 0xf9, 0x08, 0x9c, 0x3d, 
	0x41, 0xe5, 0x13, 0xbe, 0x0c, 0x92, 0x45, 0x3e, 0xb5, 0xdf, 0xa6, 0xbc, 
	0x33, 0xf5, 0x1d, 0xbe, 0x48, 0xef, 0x25, 0xbe, 0x3a, 0xdd, 0x33, 0xbe, 
	0x38, 0xfa, 0x73, 0x3e, 0xf4, 0xd2, 0xab, 0x3e, 0x09, 0xd7, 0x07, 0x3e, 
	0xf8, 0x98, 0x69, 0x3e, 0xd8, 0x7c, 0x0b, 0x3e, 0xc7, 0x4b, 0x84, 0x3e, 
	0xd2, 0x84, 0x4e, 0xbe, 0x8c, 0x3a, 0x94, 0xbc, 0x29, 0x6f, 0x0e, 0xbe, 
	0x7a, 0x33, 0x8c, 0xbd, 0x5d, 0x87, 0xe3, 0xbe, 0xa5, 0x16, 0x7a, 0xbe, 
	0xe0, 0xb2, 0x17, 0xbc, 0x6b, 0x3f, 0x9b, 0x3e, 0x76, 0x8a, 0xeb, 0xbe, 
	0xc4, 0xed, 0xea, 0x3d, 0xf5, 0xa2, 0xca, 0x3e, 0xc2, 0xc3, 0x5c, 0x3d, 
	0x0d, 0x28, 0xa6, 0x3e, 0x56, 0x17, 0x62, 0x3e, 0x6a, 0x42, 0x1e, 0x3e, 
	0x1a, 0xe8, 0x59, 0xbe, 0x0f, 0xbd, 0x4d, 0x3d, 0x5d, 0xf9, 0x88, 0x3e, 
	0x40, 0xd8, 0x18, 0xbf, 0x77, 0x7c, 0x4f, 0xbe, 0x74, 0x28, 0x09, 0xbe, 
	0x50, 0x34, 0x43, 0xbf, 0x10, 0x67, 0x30, 0x3e, 0x00, 0xe8, 0x89, 0x3e, 
	0x39, 0xcb, 0x48, 0xbe, 0xba, 0xfd, 0x45, 0x3e, 0x6c, 0x53, 0xe1, 0xbd, 
	0x9b, 0x03, 0x5e, 0xbe, 0x1b, 0x79, 0xa8, 0x3d, 0x3c, 0xe1, 0x8d, 0x3e, 
	0x1a, 0xbc, 0x9b, 0xbd, 0x64, 0xf9, 0xff, 0xff, 0x68, 0xf9, 0xff, 0xff, 
	0x0f, 0x00, 0x00, 0x00, 0x4d, 0x4c, 0x49, 0x52, 0x20, 0x43, 0x6f, 0x6e, 
	0x76, 0x65, 0x72, 0x74, 0x65, 0x64, 0x2e, 0x00, 0x01, 0x00, 0x00, 0x00, 
	0x14, 0x00, 0x00, 0x00, 0x00, 0x00, 0x0e, 0x00, 0x18, 0x00, 0x14, 0x00, 
	0x10, 0x00, 0x0c, 0x00, 0x08, 0x00, 0x04, 0x00, 0x0e, 0x00, 0x00, 0x00, 
	0x14, 0x00, 0x00, 0x00, 0x1c, 0x00, 0x00, 0x00, 0x1c, 0x01, 0x00, 0x00, 
	0x20, 0x01, 0x00, 0x00, 0x24, 0x01, 0x00, 0x00, 0x04, 0x00, 0x00, 0x00, 
	0x6d, 0x61, 0x69, 0x6e, 0x00, 0x00, 0x00, 0x00, 0x04, 0x00, 0x00, 0x00, 
	0xc4, 0x00, 0x00, 0x00, 0x7c, 0x00, 0x00, 0x00, 0x38, 0x00, 0x00, 0x00, 
	0x04, 0x00, 0x00, 0x00, 0x5a, 0xff, 0xff, 0xff, 0x10, 0x00, 0x00, 0x00, 
	0x00, 0x00, 0x00, 0x08, 0x0c, 0x00, 0x00, 0x00, 0x10, 0x00, 0x00, 0x00, 
	0xe4, 0xf9, 0xff, 0xff, 0x01, 0x00, 0x00, 0x00, 0x0c, 0x00, 0x00, 0x00, 
	0x03, 0x00, 0x00, 0x00, 0x0b, 0x00, 0x00, 0x00, 0x01, 0x00, 0x00, 0x00, 
	0x04, 0x00, 0x00, 0x00, 0x8a, 0xff, 0xff, 0xff, 0x1c, 0x00, 0x00, 0x00, 
	0x00, 0x00, 0x00, 0x08, 0x1c, 0x00, 0x00, 0x00, 0x20, 0x00, 0x00, 0x00, 
	0x0c, 0x00, 0x08, 0x00, 0x07, 0x00, 0x00, 0x00, 0x00, 0x00, 0x06, 0x00, 
	0x0c, 0x00, 0x00, 0x00, 0x00, 0x00, 0x01, 0x01, 0x01, 0x00, 0x00, 0x00, 
	0x0b, 0x00, 0x00, 0x00, 0x03, 0x00, 0x00, 0x00, 0x0a, 0x00, 0x00, 0x00, 
	0x08, 0x00, 0x00, 0x00, 0x03, 0x00, 0x00, 0x00, 0xca, 0xff, 0xff, 0xff, 
	0x10, 0x00, 0x00, 0x00, 0x00, 0x00, 0x00, 0x08, 0x10, 0x00, 0x00, 0x00, 
	0x14, 0x00, 0x00, 0x00, 0xba, 0xff, 0xff, 0xff, 0x00, 0x00, 0x00, 0x01, 
	0x01, 0x00, 0x00, 0x00, 0x0a, 0x00, 0x00, 0x00, 0x03, 0x00, 0x00, 0x00, 
	0x09, 0x00, 0x00, 0x00, 0x07, 0x00, 0x00, 0x00, 0x02, 0x00, 0x00, 0x00, 
	0x00, 0x00, 0x0e, 0x00, 0x16, 0x00, 0x00, 0x00, 0x10, 0x00, 0x0c, 0x00, 
	0x0b, 0x00, 0x04, 0x00, 0x0e, 0x00, 0x00, 0x00, 0x18, 0x00, 0x00, 0x00, 
	0x00, 0x00, 0x00, 0x08, 0x18, 0x00, 0x00, 0x00, 0x1c, 0x00, 0x00, 0x00, 
	0x00, 0x00, 0x06, 0x00, 0x08, 0x00, 0x07, 0x00, 0x06, 0x00, 0x00, 0x00, 
	0x00, 0x00, 0x00, 0x01, 0x01, 0x00, 0x00, 0x00, 0x09, 0x00, 0x00, 0x00, 
	0x03, 0x00, 0x00, 0x00, 0x00, 0x00, 0x00, 0x00, 0x06, 0x00, 0x00, 0x00, 
	0x05, 0x00, 0x00, 0x00, 0x01, 0x00, 0x00, 0x00, 0x0c, 0x00, 0x00, 0x00, 
	0x01, 0x00, 0x00, 0x00, 0x00, 0x00, 0x00, 0x00, 0x0d, 0x00, 0x00, 0x00, 
	0x04, 0x05, 0x00, 0x00, 0xa0, 0x04, 0x00, 0x00, 0x30, 0x04, 0x00, 0x00, 
	0xd8, 0x03, 0x00, 0x00, 0x80, 0x03, 0x00, 0x00, 0x2c, 0x03, 0x00, 0x00, 
	0xe4, 0x02, 0x00, 0x00, 0x98, 0x02, 0x00, 0x00, 0x20, 0x02, 0x00, 0x00, 
	0x80, 0x01, 0x00, 0x00, 0xf0, 0x00, 0x00, 0x00, 0x60, 0x00, 0x00, 0x00, 
	0x04, 0x00, 0x00, 0x00, 0x46, 0xfb, 0xff, 0xff, 0x00, 0x00, 0x00, 0x01, 
	0x14, 0x00, 0x00, 0x00, 0x1c, 0x00, 0x00, 0x00, 0x1c, 0x00, 0x00, 0x00, 
	0x0d, 0x00, 0x00, 0x00, 0x34, 0x00, 0x00, 0x00, 0x02, 0x00, 0x00, 0x00, 
	0xff, 0xff, 0xff, 0xff, 0x02, 0x00, 0x00, 0x00, 0x30, 0xfb, 0xff, 0xff, 
	0x19, 0x00, 0x00, 0x00, 0x53, 0x74, 0x61, 0x74, 0x65, 0x66, 0x75, 0x6c, 
	0x50, 0x61, 0x72, 0x74, 0x69, 0x74, 0x69, 0x6f, 0x6e, 0x65, 0x64, 0x43, 
	0x61, 0x6c, 0x6c, 0x3a, 0x30, 0x00, 0x00, 0x00, 0x02, 0x00, 0x00, 0x00, 
	0x01, 0x00, 0x00, 0x00, 0x02, 0x00, 0x00, 0x00, 0x9e, 0xfb, 0xff, 0xff, 
	0x00, 0x00, 0x00, 0x01, 0x14, 0x00, 0x00, 0x00, 0x1c, 0x00, 0x00, 0x00, 
	0x1c, 0x00, 0x00, 0x00, 0x0c, 0x00, 0x00, 0x00, 0x68, 0x00, 0x00, 0x00, 
	0x02, 0x00, 0x00, 0x00, 0xff, 0xff, 0xff, 0xff, 0x50, 0x00, 0x00, 0x00, 
	0x88, 0xfb, 0xff, 0xff, 0x4c, 0x00, 0x00, 0x00, 0x73, 0x65, 0x71, 0x75, 
	0x65, 0x6e, 0x74, 0x69, 0x61, 0x6c, 0x2f, 0x64, 0x65, 0x6e, 0x73, 0x65, 
	0x5f, 0x32, 0x2f, 0x4d, 0x61, 0x74, 0x4d, 0x75, 0x6c, 0x3b, 0x73, 0x65, 
	0x71, 0x75, 0x65, 0x6e, 0x74, 0x69, 0x61, 0x6c, 0x2f, 0x64, 0x65, 0x6e, 
	0x73, 0x65, 0x5f, 0x32, 0x2f, 0x52, 0x65, 0x6c, 0x75, 0x3b, 0x73, 0x65, 
	0x71, 0x75, 0x65, 0x6e, 0x74, 0x69, 0x61, 0x6c, 0x2f, 0x64, 0x65, 0x6e, 
	0x73, 0x65, 0x5f, 0x32, 0x2f, 0x42, 0x69, 0x61, 0x73, 0x41, 0x64, 0x64, 
	0x00, 0x00, 0x00, 0x00, 0x02, 0x00, 0x00, 0x00, 0x01, 0x00, 0x00, 0x00, 
	0x50, 0x00, 0x00, 0x00, 0x2a, 0xfc, 0xff, 0xff, 0x00, 0x00, 0x00, 0x01, 
	0x14, 0x00, 0x00, 0x00, 0x1c, 0x00, 0x00, 0x00, 0x1c, 0x00, 0x00, 0x00, 
	0x0b, 0x00, 0x00, 0x00, 0x68, 0x00, 0x00, 0x00, 0x02, 0x00, 0x00, 0x00, 
	0xff, 0xff, 0xff, 0xff, 0x28, 0x00, 0x00, 0x00, 0x14, 0xfc, 0xff, 0xff, 
	0x4c, 0x00, 0x00, 0x00, 0x73, 0x65, 0x71, 0x75, 0x65, 0x6e, 0x74, 0x69, 
	0x61, 0x6c, 0x2f, 0x64, 0x65, 0x6e, 0x73, 0x65, 0x5f, 0x31, 0x2f, 0x4d, 
	0x61, 0x74, 0x4d, 0x75, 0x6c, 0x3b, 0x73, 0x65, 0x71, 0x75, 0x65, 0x6e, 
	0x74, 0x69, 0x61, 0x6c, 0x2f, 0x64, 0x65, 0x6e, 0x73, 0x65, 0x5f, 0x31, 
	0x2f, 0x52, 0x65, 0x6c, 0x75, 0x3b, 0x73, 0x65, 0x71, 0x75, 0x65, 0x6e, 
	0x74, 0x69, 0x61, 0x6c, 0x2f, 0x64, 0x65, 0x6e, 0x73, 0x65, 0x5f, 0x31, 
	0x2f, 0x42, 0x69, 0x61, 0x73, 0x41, 0x64, 0x64, 0x00, 0x00, 0x00, 0x00, 
	0x02, 0x00, 0x00, 0x00, 0x01, 0x00, 0x00, 0x00, 0x28, 0x00, 0x00, 0x00, 
	0xb6, 0xfc, 0xff, 0xff, 0x00, 0x00, 0x00, 0x01, 0x14, 0x00, 0x00, 0x00, 
	0x1c, 0x00, 0x00, 0x00, 0x1c, 0x00, 0x00, 0x00, 0x0a, 0x00, 0x00, 0x00, 
	0x60, 0x00, 0x00, 0x00, 0x02, 0x00, 0x00, 0x00, 0xff, 0xff, 0xff, 0xff, 
	0x14, 0x00, 0x00, 0x00, 0xa0, 0xfc, 0xff, 0xff, 0x46, 0x00, 0x00, 0x00, 
	0x73, 0x65, 0x71, 0x75, 0x65, 0x6e, 0x74, 0x69, 0x61, 0x6c, 0x2f, 0x64, 
	0x65, 0x6e, 0x73, 0x65, 0x2f, 0x4d, 0x61, 0x74, 0x4d, 0x75, 0x6c, 0x3b, 
	0x73, 0x65, 0x71, 0x75, 0x65, 0x6e, 0x74, 0x69, 0x61, 0x6c, 0x2f, 0x64, 
	0x65, 0x6e, 0x73, 0x65, 0x2f, 0x52, 0x65, 0x6c, 0x75, 0x3b, 0x73, 0x65, 
	0x71, 0x75, 0x65, 0x6e, 0x74, 0x69, 0x61, 0x6c, 0x2f, 0x64, 0x65, 0x6e, 
	0x73, 0x65, 0x2f, 0x42, 0x69, 0x61, 0x73, 0x41, 0x64, 0x64, 0x00, 0x00, 
	0x02, 0x00, 0x00, 0x00, 0x01, 0x00, 0x00, 0x00, 0x14, 0x00, 0x00, 0x00, 
	0x00, 0x00, 0x16, 0x00, 0x1c, 0x00, 0x18, 0x00, 0x17, 0x00, 0x10, 0x00, 
	0x0c, 0x00, 0x08, 0x00, 0x00, 0x00, 0x00, 0x00, 0x00, 0x00, 0x07, 0x00, 
	0x16, 0x00, 0x00, 0x00, 0x00, 0x00, 0x00, 0x01, 0x20, 0x00, 0x00, 0x00, 
	0x3c, 0x00, 0x00, 0x00, 0x09, 0x00, 0x00, 0x00, 0x00, 0x00, 0x00, 0x09, 
	0x50, 0x00, 0x00, 0x00, 0x0c, 0x00, 0x0c, 0x00, 0x00, 0x00, 0x00, 0x00, 
	0x08, 0x00, 0x04, 0x00, 0x0c, 0x00, 0x00, 0x00, 0x08, 0x00, 0x00, 0x00, 
	0x10, 0x00, 0x00, 0x00, 0x01, 0x00, 0x00, 0x00, 0x00, 0x00, 0x00, 0x00, 
	0x00, 0x00, 0x00, 0x00, 0x01, 0x00, 0x00, 0x00, 0x60, 0x4d, 0xc3, 0x3b, 
	0x19, 0x00, 0x00, 0x00, 0x73, 0x65, 0x71, 0x75, 0x65, 0x6e, 0x74, 0x69, 
	0x61, 0x6c, 0x2f, 0x64, 0x65, 0x6e, 0x73, 0x65, 0x5f, 0x32, 0x2f, 0x4d, 
	0x61, 0x74, 0x4d, 0x75, 0x6c, 0x00, 0x00, 0x00, 0x02, 0x00, 0x00, 0x00, 
	0x50, 0x00, 0x00, 0x00, 0x28, 0x00, 0x00, 0x00, 0x26, 0xfe, 0xff, 0xff, 
	0x00, 0x00, 0x00, 0x01, 0x10, 0x00, 0x00, 0x00, 0x10, 0x00, 0x00, 0x00, 
	0x08, 0x00, 0x00, 0x00, 0x28, 0x00, 0x00, 0x00, 0xa0, 0xfd, 0xff, 0xff, 
	0x19, 0x00, 0x00, 0x00, 0x73, 0x65, 0x71, 0x75, 0x65, 0x6e, 0x74, 0x69, 
	0x61, 0x6c, 0x2f, 0x64, 0x65, 0x6e, 0x73, 0x65, 0x5f, 0x31, 0x2f, 0x4d, 
	0x61, 0x74, 0x4d, 0x75, 0x6c, 0x00, 0x00, 0x00, 0x02, 0x00, 0x00, 0x00, 
	0x28, 0x00, 0x00, 0x00, 0x14, 0x00, 0x00, 0x00, 0x6e, 0xfe, 0xff, 0xff, 
	0x00, 0x00, 0x00, 0x01, 0x10, 0x00, 0x00, 0x00, 0x10, 0x00, 0x00, 0x00, 
	0x07, 0x00, 0x00, 0x00, 0x24, 0x00, 0x00, 0x00, 0xe8, 0xfd, 0xff, 0xff, 
	0x17, 0x00, 0x00, 0x00, 0x73, 0x65, 0x71, 0x75, 0x65, 0x6e, 0x74, 0x69, 
	0x61, 0x6c, 0x2f, 0x64, 0x65, 0x6e, 0x73, 0x65, 0x2f, 0x4d, 0x61, 0x74, 
	0x4d, 0x75, 0x6c, 0x00, 0x02, 0x00, 0x00, 0x00, 0x14, 0x00, 0x00, 0x00, 
	0x03, 0x00, 0x00, 0x00, 0xb2, 0xfe, 0xff, 0xff, 0x00, 0x00, 0x00, 0x01, 
	0x10, 0x00, 0x00, 0x00, 0x10, 0x00, 0x00, 0x00, 0x06, 0x00, 0x00, 0x00, 
	0x34, 0x00, 0x00, 0x00, 0x2c, 0xfe, 0xff, 0xff, 0x27, 0x00, 0x00, 0x00, 
	0x73, 0x65, 0x71, 0x75, 0x65, 0x6e, 0x74, 0x69, 0x61, 0x6c, 0x2f, 0x64, 
	0x65, 0x6e, 0x73, 0x65, 0x2f, 0x42, 0x69, 0x61, 0x73, 0x41, 0x64, 0x64, 
	0x2f, 0x52, 0x65, 0x61, 0x64, 0x56, 0x61, 0x72, 0x69, 0x61, 0x62, 0x6c, 
	0x65, 0x4f, 0x70, 0x00, 0x01, 0x00, 0x00, 0x00, 0x14, 0x00, 0x00, 0x00, 
	0x02, 0xff, 0xff, 0xff, 0x00, 0x00, 0x00, 0x01, 0x10, 0x00, 0x00, 0x00, 
	0x10, 0x00, 0x00, 0x00, 0x05, 0x00, 0x00, 0x00, 0x38, 0x00, 0x00, 0x00, 
	0x7c, 0xfe, 0xff, 0xff, 0x29, 0x00, 0x00, 0x00, 0x73, 0x65, 0x71, 0x75, 
	0x65, 0x6e, 0x74, 0x69, 0x61, 0x6c, 0x2f, 0x64, 0x65, 0x6e, 0x73, 0x65, 
	0x5f, 0x33, 0x2f, 0x42, 0x69, 0x61, 0x73, 0x41, 0x64, 0x64, 0x2f, 0x52, 
	0x65, 0x61, 0x64, 0x56, 0x61, 0x72, 0x69, 0x61, 0x62, 0x6c, 0x65, 0x4f, 
	0x70, 0x00, 0x00, 0x00, 0x01, 0x00, 0x00, 0x00, 0x02, 0x00, 0x00, 0x00, 
	0x56, 0xff, 0xff, 0xff, 0x00, 0x00, 0x00, 0x01, 0x10, 0x00, 0x00, 0x00, 
	0x10, 0x00, 0x00, 0x00, 0x04, 0x00, 0x00, 0x00, 0x38, 0x00, 0x00, 0x00, 
	0xd0, 0xfe, 0xff, 0xff, 0x29, 0x00, 0x00, 0x00, 0x73, 0x65, 0x71, 0x75, 
	0x65, 0x6e, 0x74, 0x69, 0x61, 0x6c, 0x2f, 0x64, 0x65, 0x6e, 0x73, 0x65, 
	0x5f, 0x32, 0x2f, 0x42, 0x69, 0x61, 0x73, 0x41, 0x64, 0x64, 0x2f, 0x52, 
	0x65, 0x61, 0x64, 0x56, 0x61, 0x72, 0x69, 0x61, 0x62, 0x6c, 0x65, 0x4f, 
	0x70, 0x00, 0x00, 0x00, 0x01, 0x00, 0x00, 0x00, 0x50, 0x00, 0x00, 0x00, 
	0xaa, 0xff, 0xff, 0xff, 0x00, 0x00, 0x00, 0x01, 0x10, 0x00, 0x00, 0x00, 
	0x10, 0x00, 0x00, 0x00, 0x03, 0x00, 0x00, 0x00, 0x38, 0x00, 0x00, 0x00, 
	0x24, 0xff, 0xff, 0xff, 0x29, 0x00, 0x00, 0x00, 0x73, 0x65, 0x71, 0x75, 
	0x65, 0x6e, 0x74, 0x69, 0x61, 0x6c, 0x2f, 0x64, 0x65, 0x6e, 0x73, 0x65, 
	0x5f, 0x31, 0x2f, 0x42, 0x69, 0x61, 0x73, 0x41, 0x64, 0x64, 0x2f, 0x52, 
	0x65, 0x61, 0x64, 0x56, 0x61, 0x72, 0x69, 0x61, 0x62, 0x6c, 0x65, 0x4f, 
	0x70, 0x00, 0x00, 0x00, 0x01, 0x00, 0x00, 0x00, 0x28, 0x00, 0x00, 0x00, 
	0x00, 0x00, 0x16, 0x00, 0x18, 0x00, 0x14, 0x00, 0x00, 0x00, 0x10, 0x00, 
	0x0c, 0x00, 0x08, 0x00, 0x00, 0x00, 0x00, 0x00, 0x00, 0x00, 0x07, 0x00, 
	0x16, 0x00, 0x00, 0x00, 0x00, 0x00, 0x00, 0x01, 0x10, 0x00, 0x00, 0x00, 
	0x10, 0x00, 0x00, 0x00, 0x02, 0x00, 0x00, 0x00, 0x28, 0x00, 0x00, 0x00, 
	0x90, 0xff, 0xff, 0xff, 0x19, 0x00, 0x00, 0x00, 0x73, 0x65, 0x71, 0x75, 
	0x65, 0x6e, 0x74, 0x69, 0x61, 0x6c, 0x2f, 0x64, 0x65, 0x6e, 0x73, 0x65, 
	0x5f, 0x33, 0x2f, 0x4d, 0x61, 0x74, 0x4d, 0x75, 0x6c, 0x00, 0x00, 0x00, 
	0x02, 0x00, 0x00, 0x00, 0x02, 0x00, 0x00, 0x00, 0x50, 0x00, 0x00, 0x00, 
	0x00, 0x00, 0x16, 0x00, 0x1c, 0x00, 0x18, 0x00, 0x00, 0x00, 0x14, 0x00, 
	0x10, 0x00, 0x0c, 0x00, 0x00, 0x00, 0x00, 0x00, 0x08, 0x00, 0x07, 0x00, 
	0x16, 0x00, 0x00, 0x00, 0x00, 0x00, 0x00, 0x01, 0x14, 0x00, 0x00, 0x00, 
	0x20, 0x00, 0x00, 0x00, 0x20, 0x00, 0x00, 0x00, 0x01, 0x00, 0x00, 0x00, 
	0x3c, 0x00, 0x00, 0x00, 0x02, 0x00, 0x00, 0x00, 0xff, 0xff, 0xff, 0xff, 
	0x03, 0x00, 0x00, 0x00, 0x04, 0x00, 0x04, 0x00, 0x04, 0x00, 0x00, 0x00, 
	0x1d, 0x00, 0x00, 0x00, 0x73, 0x65, 0x72, 0x76, 0x69, 0x6e, 0x67, 0x5f, 
	0x64, 0x65, 0x66, 0x61, 0x75, 0x6c, 0x74, 0x5f, 0x64, 0x65, 0x6e, 0x73, 
	0x65, 0x5f, 0x69, 0x6e, 0x70, 0x75, 0x74, 0x3a, 0x30, 0x00, 0x00, 0x00, 
	0x02, 0x00, 0x00, 0x00, 0x01, 0x00, 0x00, 0x00, 0x03, 0x00, 0x00, 0x00, 
	0x01, 0x00, 0x00, 0x00, 0x10, 0x00, 0x00, 0x00, 0x0c, 0x00, 0x10, 0x00, 
	0x0f, 0x00, 0x00, 0x00, 0x08, 0x00, 0x04, 0x00, 0x0c, 0x00, 0x00, 0x00, 
	0x09, 0x00, 0x00, 0x00, 0x09, 0x00, 0x00, 0x00, 0x00, 0x00, 0x00, 0x09
};
const int invkine_model_len = 10224;