
// This model is a copy of the model generated by the runs/exp4/model.h generated file.

// Please install espressif arduino library before run this inference implementation.
// Please install arduino EloquentTinyML library before run this inference implementation. 

#ifdef __has_attribute
#define HAVE_ATTRIBUTE(x) __has_attribute(x)
#else
#define HAVE_ATTRIBUTE(x) 0
#endif
#if HAVE_ATTRIBUTE(aligned) || (defined(__GNUC__) && !defined(__clang__))
#define DATA_ALIGN_ATTRIBUTE __attribute__((aligned(4)))
#else
#define DATA_ALIGN_ATTRIBUTE
#endif

const unsigned char invkine_model[] DATA_ALIGN_ATTRIBUTE = {
	0x1c, 0x00, 0x00, 0x00, 0x54, 0x46, 0x4c, 0x33, 0x14, 0x00, 0x20, 0x00, 
	0x1c, 0x00, 0x18, 0x00, 0x14, 0x00, 0x10, 0x00, 0x0c, 0x00, 0x00, 0x00, 
	0x08, 0x00, 0x04, 0x00, 0x14, 0x00, 0x00, 0x00, 0x1c, 0x00, 0x00, 0x00, 
	0x90, 0x00, 0x00, 0x00, 0xe8, 0x00, 0x00, 0x00, 0x88, 0x0c, 0x00, 0x00, 
	0x98, 0x0c, 0x00, 0x00, 0x90, 0x11, 0x00, 0x00, 0x03, 0x00, 0x00, 0x00, 
	0x01, 0x00, 0x00, 0x00, 0x10, 0x00, 0x00, 0x00, 0x00, 0x00, 0x0a, 0x00, 
	0x10, 0x00, 0x0c, 0x00, 0x08, 0x00, 0x04, 0x00, 0x0a, 0x00, 0x00, 0x00, 
	0x0c, 0x00, 0x00, 0x00, 0x1c, 0x00, 0x00, 0x00, 0x38, 0x00, 0x00, 0x00, 
	0x0f, 0x00, 0x00, 0x00, 0x73, 0x65, 0x72, 0x76, 0x69, 0x6e, 0x67, 0x5f, 
	0x64, 0x65, 0x66, 0x61, 0x75, 0x6c, 0x74, 0x00, 0x01, 0x00, 0x00, 0x00, 
	0x04, 0x00, 0x00, 0x00, 0x98, 0xff, 0xff, 0xff, 0x09, 0x00, 0x00, 0x00, 
	0x04, 0x00, 0x00, 0x00, 0x07, 0x00, 0x00, 0x00, 0x64, 0x65, 0x6e, 0x73, 
	0x65, 0x5f, 0x32, 0x00, 0x01, 0x00, 0x00, 0x00, 0x04, 0x00, 0x00, 0x00, 
	0x82, 0xf4, 0xff, 0xff, 0x04, 0x00, 0x00, 0x00, 0x0b, 0x00, 0x00, 0x00, 
	0x64, 0x65, 0x6e, 0x73, 0x65, 0x5f, 0x69, 0x6e, 0x70, 0x75, 0x74, 0x00, 
	0x02, 0x00, 0x00, 0x00, 0x34, 0x00, 0x00, 0x00, 0x04, 0x00, 0x00, 0x00, 
	0xdc, 0xff, 0xff, 0xff, 0x0c, 0x00, 0x00, 0x00, 0x04, 0x00, 0x00, 0x00, 
	0x13, 0x00, 0x00, 0x00, 0x43, 0x4f, 0x4e, 0x56, 0x45, 0x52, 0x53, 0x49, 
	0x4f, 0x4e, 0x5f, 0x4d, 0x45, 0x54, 0x41, 0x44, 0x41, 0x54, 0x41, 0x00, 
	0x08, 0x00, 0x0c, 0x00, 0x08, 0x00, 0x04, 0x00, 0x08, 0x00, 0x00, 0x00, 
	0x0b, 0x00, 0x00, 0x00, 0x04, 0x00, 0x00, 0x00, 0x13, 0x00, 0x00, 0x00, 
	0x6d, 0x69, 0x6e, 0x5f, 0x72, 0x75, 0x6e, 0x74, 0x69, 0x6d, 0x65, 0x5f, 
	0x76, 0x65, 0x72, 0x73, 0x69, 0x6f, 0x6e, 0x00, 0x0d, 0x00, 0x00, 0x00, 
	0x9c, 0x0b, 0x00, 0x00, 0x94, 0x0b, 0x00, 0x00, 0x04, 0x0b, 0x00, 0x00, 
	0xe4, 0x0a, 0x00, 0x00, 0x94, 0x0a, 0x00, 0x00, 0xc4, 0x09, 0x00, 0x00, 
	0xb4, 0x01, 0x00, 0x00, 0xa4, 0x00, 0x00, 0x00, 0x9c, 0x00, 0x00, 0x00, 
	0x94, 0x00, 0x00, 0x00, 0x8c, 0x00, 0x00, 0x00, 0x6c, 0x00, 0x00, 0x00, 
	0x04, 0x00, 0x00, 0x00, 0x2e, 0xf5, 0xff, 0xff, 0x04, 0x00, 0x00, 0x00, 
	0x58, 0x00, 0x00, 0x00, 0x0c, 0x00, 0x00, 0x00, 0x08, 0x00, 0x0e, 0x00, 
	0x08, 0x00, 0x04, 0x00, 0x08, 0x00, 0x00, 0x00, 0x10, 0x00, 0x00, 0x00, 
	0x28, 0x00, 0x00, 0x00, 0x00, 0x00, 0x06, 0x00, 0x08, 0x00, 0x04, 0x00, 
	0x06, 0x00, 0x00, 0x00, 0x04, 0x00, 0x00, 0x00, 0x01, 0x00, 0x00, 0x00, 
	0xea, 0x03, 0x00, 0x00, 0x00, 0x00, 0x0a, 0x00, 0x10, 0x00, 0x0c, 0x00, 
	0x08, 0x00, 0x04, 0x00, 0x0a, 0x00, 0x00, 0x00, 0x02, 0x00, 0x00, 0x00, 
	0x02, 0x00, 0x00, 0x00, 0x04, 0x00, 0x00, 0x00, 0x06, 0x00, 0x00, 0x00, 
	0x32, 0x2e, 0x31, 0x32, 0x2e, 0x30, 0x00, 0x00, 0x92, 0xf5, 0xff, 0xff, 
	0x04, 0x00, 0x00, 0x00, 0x10, 0x00, 0x00, 0x00, 0x31, 0x2e, 0x35, 0x2e, 
	0x30, 0x00, 0x00, 0x00, 0x00, 0x00, 0x00, 0x00, 0x00, 0x00, 0x00, 0x00, 
	0x3c, 0xf0, 0xff, 0xff, 0x40, 0xf0, 0xff, 0xff, 0x44, 0xf0, 0xff, 0xff, 
	0xba, 0xf5, 0xff, 0xff, 0x04, 0x00, 0x00, 0x00, 0x00, 0x01, 0x00, 0x00, 
	0xf0, 0x59, 0x91, 0x3e, 0xb1, 0x8e, 0x83, 0x3e, 0xa7, 0xb6, 0x4a, 0xbc, 
	0xf0, 0x0d, 0x92, 0x3e, 0x20, 0x76, 0x81, 0x3e, 0xdb, 0xdb, 0x07, 0xbe, 
	0x22, 0x36, 0xcf, 0x3d, 0x75, 0x12, 0x80, 0xbe, 0xbf, 0xf4, 0xd2, 0xbe, 
	0x3f, 0x9b, 0x1c, 0x3f, 0x7c, 0x91, 0xfe, 0x3d, 0x5f, 0x30, 0xc6, 0xbd, 
	0xb9, 0x3b, 0xc1, 0xbe, 0x14, 0x57, 0xfd, 0x3d, 0x58, 0xbe, 0x92, 0x3e, 
	0x5b, 0xba, 0x99, 0xbe, 0x2c, 0x01, 0x01, 0x3f, 0x4c, 0xfb, 0xa9, 0x3e, 
	0x09, 0x39, 0x41, 0x3e, 0xd3, 0xd1, 0xc5, 0xbe, 0xbb, 0x54, 0x88, 0x3e, 
	0x27, 0x82, 0x59, 0xbe, 0x27, 0x19, 0xd8, 0xbd, 0x4b, 0xd4, 0x77, 0xbc, 
	0x47, 0xda, 0x5e, 0xbd, 0xc1, 0xfd, 0xb2, 0x3e, 0x9d, 0xc0, 0xd8, 0x3e, 
	0xb9, 0x74, 0xcb, 0x3e, 0xdf, 0x94, 0x6b, 0x3e, 0x82, 0x66, 0x2c, 0x3f, 
	0x16, 0x19, 0xaf, 0x3e, 0x9f, 0xb1, 0xe3, 0xbd, 0x83, 0x6a, 0x19, 0xbf, 
	0x28, 0xb8, 0xb3, 0x3d, 0xfa, 0xf1, 0x16, 0x3f, 0xb1, 0x84, 0xef, 0xbe, 
	0x76, 0xc3, 0xaa, 0x3e, 0x97, 0xa8, 0xbb, 0xbe, 0x1d, 0xe4, 0xd2, 0xbe, 
	0xd8, 0xa3, 0x1c, 0x3f, 0xb9, 0xa5, 0x06, 0xbe, 0xfc, 0x79, 0xd5, 0x3d, 
	0x06, 0x2d, 0xb1, 0xbe, 0xd0, 0xc9, 0x89, 0x3e, 0x94, 0x27, 0xb9, 0xbe, 
	0x0b, 0xe2, 0x76, 0x3e, 0x1e, 0x4d, 0x21, 0x3f, 0xc6, 0xc7, 0x9b, 0x3e, 
	0xd2, 0x05, 0x7c, 0x3e, 0x60, 0x1f, 0x27, 0xbf, 0x4d, 0x3d, 0x06, 0x3f, 
	0x6a, 0xd7, 0x4d, 0xbc, 0x1e, 0xb0, 0xe3, 0x3e, 0x67, 0x46, 0x8a, 0x3e, 
	0x35, 0x67, 0x50, 0xbe, 0x78, 0x7b, 0x9b, 0xbe, 0x90, 0xc8, 0xfa, 0x3e, 
	0x83, 0xf0, 0xdd, 0x3e, 0xa0, 0x6c, 0xb9, 0xbe, 0x55, 0x0c, 0xd2, 0x3e, 
	0x67, 0x15, 0xb8, 0x3e, 0x82, 0x91, 0x3c, 0xbe, 0x51, 0xc0, 0xee, 0xbe, 
	0x3b, 0x50, 0xce, 0x3e, 0xc6, 0xf6, 0xff, 0xff, 0x04, 0x00, 0x00, 0x00, 
	0x00, 0x08, 0x00, 0x00, 0x78, 0xf3, 0xe3, 0x3c, 0x86, 0x78, 0x87, 0x3d, 
	0xf4, 0xda, 0x94, 0x3e, 0x0b, 0x4b, 0xc5, 0x3e, 0x9f, 0xfb, 0x55, 0x3e, 
	0x77, 0x94, 0xbc, 0x3e, 0x82, 0x9f, 0x0f, 0x3e, 0xb8, 0x93, 0x1c, 0xbe, 
	0xe4, 0x17, 0xb8, 0x3d, 0x78, 0x8c, 0xcc, 0x3e, 0x9a, 0x3b, 0x53, 0x3d, 
	0x5c, 0xde, 0xb7, 0xbe, 0x27, 0x65, 0xd3, 0xbe, 0xe8, 0x01, 0xa0, 0xbd, 
	0x9b, 0x8b, 0x98, 0x3c, 0x98, 0x33, 0x45, 0x3d, 0x33, 0xaf, 0x6e, 0xbe, 
	0xb6, 0xd5, 0x9f, 0x3d, 0xee, 0x6e, 0x33, 0x3f, 0x95, 0x8b, 0xd0, 0xbe, 
	0xd3, 0xd5, 0xa4, 0xbe, 0x2e, 0xf8, 0xdd, 0xbe, 0xda, 0xdd, 0xe3, 0xbe, 
	0xc7, 0xd8, 0x05, 0xbe, 0x8f, 0x5b, 0xb3, 0x3e, 0x30, 0x3f, 0x30, 0xbe, 
	0x14, 0x07, 0xe5, 0x3e, 0x98, 0xb3, 0x99, 0x3e, 0x9c, 0x39, 0xd7, 0xbd, 
	0x6e, 0x44, 0x35, 0xbe, 0x3c, 0xdf, 0xd5, 0x3e, 0x84, 0xd6, 0x56, 0xbe, 
	0x0f, 0x37, 0x92, 0xbe, 0x22, 0x5b, 0x3a, 0xbe, 0x4f, 0xa5, 0x02, 0xbd, 
	0x86, 0x77, 0xc2, 0xbd, 0x18, 0x0d, 0x4d, 0xbe, 0x65, 0x83, 0x7e, 0xbe, 
	0x26, 0xb9, 0x96, 0x3e, 0x8a, 0x42, 0xd1, 0xbe, 0x52, 0xa5, 0xe4, 0xbd, 
	0x87, 0xca, 0x8a, 0xbe, 0x3a, 0xb0, 0xe5, 0x3d, 0xfa, 0x56, 0x09, 0xbe, 
	0xb5, 0x71, 0x99, 0xbd, 0x42, 0x8c, 0xa9, 0x3e, 0x52, 0x2f, 0x14, 0x3f, 
	0x10, 0x4b, 0x8f, 0x3e, 0xea, 0xa9, 0xe3, 0x3e, 0x06, 0x8c, 0x52, 0xbe, 
	0xdc, 0xa4, 0xb0, 0x3e, 0x9c, 0x83, 0x1f, 0x3d, 0x26, 0x0b, 0x15, 0x3e, 
	0xc2, 0xb4, 0x4d, 0x3e, 0x99, 0xf2, 0x99, 0x3e, 0xbf, 0x4b, 0x49, 0xbd, 
	0x44, 0x95, 0xf2, 0xbc, 0x7a, 0xc3, 0xb6, 0xbc, 0xd0, 0x03, 0x8c, 0x3e, 
	0xcd, 0xc4, 0xcf, 0x3d, 0xdb, 0x06, 0xc0, 0x3e, 0xe4, 0xae, 0xef, 0x3d, 
	0xcd, 0x7d, 0x87, 0xbe, 0xf9, 0x8b, 0x0d, 0x3f, 0xa0, 0xd5, 0xc4, 0xbd, 
	0x2b, 0xef, 0x84, 0xbd, 0x2c, 0x83, 0x87, 0xbe, 0xb4, 0x9a, 0x05, 0xbd, 
	0x91, 0x94, 0x7e, 0xbe, 0xce, 0x82, 0xa5, 0xbd, 0x95, 0xfd, 0xd6, 0x3b, 
	0x2a, 0x1c, 0x3b, 0x3e, 0xe2, 0x03, 0x6e, 0x3e, 0x34, 0x0d, 0x15, 0xbe, 
	0xa8, 0x86, 0xf4, 0xbd, 0xf0, 0x96, 0xc8, 0xbd, 0x3a, 0x88, 0xb1, 0xbe, 
	0x3b, 0xfd, 0x07, 0xbe, 0xc7, 0x2d, 0x9a, 0x3e, 0x20, 0x94, 0x2f, 0xbe, 
	0x98, 0x65, 0xaa, 0xbe, 0x20, 0xa3, 0x45, 0xbe, 0x87, 0x37, 0x6d, 0x3e, 
	0x0c, 0x6f, 0x8e, 0x3e, 0x7e, 0xac, 0x9b, 0xbe, 0xec, 0xdd, 0x8f, 0x3d, 
	0x20, 0x9a, 0x89, 0xbe, 0xb0, 0x18, 0x80, 0xbe, 0x22, 0x49, 0x32, 0xbe, 
	0x54, 0xcd, 0xd2, 0x3d, 0xcf, 0xee, 0x28, 0x3e, 0xd2, 0x95, 0xa4, 0xbe, 
	0x9f, 0x27, 0x9a, 0xbe, 0x69, 0xee, 0x49, 0xbe, 0x0f, 0xed, 0x7f, 0xbe, 
	0xe1, 0xab, 0x1e, 0x3e, 0xb6, 0x2d, 0x82, 0xbd, 0xfb, 0x6d, 0x51, 0x3e, 
	0x17, 0xee, 0x24, 0xbe, 0xbe, 0x93, 0x77, 0x3e, 0x53, 0x9a, 0x13, 0xbe, 
	0x04, 0x3f, 0x2d, 0x3e, 0x27, 0xde, 0x44, 0x3d, 0xc7, 0x7c, 0x46, 0xbd, 
	0x62, 0x4c, 0xc3, 0x3e, 0xdb, 0x59, 0x00, 0x3f, 0xbf, 0x2c, 0xb0, 0x3e, 
	0x84, 0x1c, 0x33, 0xbe, 0x76, 0xe9, 0x54, 0x3e, 0xe9, 0xce, 0x50, 0x3e, 
	0x56, 0xb6, 0x45, 0xbf, 0x6b, 0x8e, 0x58, 0x3d, 0x6e, 0xd0, 0x9e, 0xbe, 
	0xe8, 0xcd, 0x06, 0x3d, 0x0b, 0x41, 0xcb, 0x3d, 0x44, 0x71, 0x94, 0xbe, 
	0x13, 0x49, 0xbe, 0x3e, 0x03, 0x58, 0x2d, 0x3d, 0x22, 0x4a, 0x9b, 0xbe, 
	0x26, 0x89, 0x07, 0x3e, 0xa4, 0xb8, 0x18, 0xbd, 0x10, 0x4b, 0x00, 0xbf, 
	0xd7, 0xa4, 0x24, 0xbe, 0xc7, 0xc7, 0xa6, 0xbe, 0x6f, 0xb6, 0x93, 0x3e, 
	0xc1, 0x99, 0x97, 0x3e, 0x6c, 0x11, 0x0a, 0x3f, 0x84, 0x13, 0xba, 0xbe, 
	0x06, 0x48, 0xb0, 0x3d, 0x68, 0x55, 0xb9, 0x3d, 0x82, 0x7f, 0x90, 0xbd, 
	0xa5, 0x82, 0x84, 0x3e, 0xd2, 0x59, 0xfb, 0x3e, 0x7f, 0x69, 0x0b, 0x3d, 
	0x93, 0x79, 0xe1, 0x3d, 0x15, 0x59, 0xe2, 0x3e, 0xd5, 0x73, 0x23, 0x3e, 
	0xfd, 0xf6, 0x72, 0xbd, 0x42, 0x25, 0x9d, 0xbe, 0x43, 0x39, 0x69, 0xbe, 
	0xff, 0x5f, 0x36, 0x3e, 0x41, 0x9d, 0x60, 0xbe, 0xdf, 0x2c, 0x6c, 0x3e, 
	0xc2, 0x7b, 0x8e, 0xbe, 0x0d, 0x16, 0x51, 0xbc, 0x5f, 0xc8, 0xe4, 0x3e, 
	0x1d, 0xc5, 0x3b, 0x3f, 0x5a, 0x6c, 0x0a, 0xbe, 0xc3, 0x43, 0x37, 0xbf, 
	0x36, 0x57, 0x41, 0xbf, 0x5f, 0x75, 0x60, 0xbf, 0xc4, 0x94, 0x08, 0x3e, 
	0xfc, 0x47, 0x37, 0x3d, 0x04, 0x24, 0x82, 0xbe, 0x13, 0x79, 0x57, 0x3e, 
	0xe4, 0xfd, 0xb5, 0xbd, 0x0f, 0x74, 0x85, 0x3e, 0x00, 0x25, 0x85, 0xbe, 
	0x87, 0x5b, 0x94, 0x3e, 0xe6, 0x63, 0xbc, 0xbd, 0x40, 0xa3, 0xd9, 0x3c, 
	0xe8, 0x9f, 0x48, 0x3d, 0xe5, 0xcd, 0x47, 0xbe, 0xa8, 0x31, 0xf6, 0x3d, 
	0x08, 0x06, 0xb3, 0xbe, 0x0e, 0xeb, 0xe6, 0xbd, 0x9c, 0x79, 0xee, 0xbd, 
	0x56, 0x0c, 0x05, 0x3e, 0x61, 0x33, 0x67, 0xbe, 0x74, 0xfc, 0x8c, 0xbe, 
	0xc0, 0x9d, 0xc1, 0xbd, 0x2e, 0xe9, 0xa8, 0xbe, 0xb4, 0xeb, 0x4b, 0xbe, 
	0x79, 0xf3, 0x96, 0xbe, 0x16, 0x70, 0x3c, 0x3e, 0x78, 0xb4, 0xa4, 0xbd, 
	0x90, 0xe4, 0x24, 0xbe, 0xda, 0xf1, 0x21, 0x3e, 0x39, 0xf8, 0x30, 0x3e, 
	0x40, 0x75, 0x03, 0xbd, 0xc6, 0xad, 0xa8, 0x3e, 0x8d, 0xb5, 0x2e, 0x3e, 
	0xeb, 0x4d, 0xcd, 0x3d, 0x28, 0xe3, 0xe4, 0xbc, 0x0a, 0x33, 0xa5, 0xbc, 
	0x7a, 0xa3, 0xb1, 0xbe, 0xa6, 0x11, 0x54, 0x3e, 0x4f, 0x2f, 0x39, 0xbe, 
	0x02, 0xc6, 0x1e, 0xbc, 0x0b, 0x4d, 0x0b, 0xbd, 0x3b, 0xb1, 0xb8, 0x3e, 
	0x95, 0x5d, 0xb6, 0xbe, 0xd6, 0x91, 0x18, 0x3e, 0xa4, 0x62, 0x35, 0x3e, 
	0x78, 0xec, 0xc7, 0x3d, 0x79, 0xae, 0x30, 0xbd, 0x15, 0xb2, 0x90, 0x3e, 
	0x7a, 0xc1, 0x0d, 0xbd, 0x5e, 0xf4, 0xeb, 0x3e, 0xa6, 0x27, 0x79, 0x3e, 
	0x5c, 0x66, 0xce, 0xbe, 0x92, 0xc7, 0x03, 0x3e, 0x53, 0x64, 0xf5, 0xbd, 
	0xc3, 0xb9, 0x6e, 0xbd, 0xb4, 0xfc, 0x05, 0xbe, 0x9f, 0x72, 0x44, 0xbe, 
	0x2d, 0xb2, 0xac, 0x3e, 0xca, 0x7f, 0xf6, 0xbe, 0x6b, 0xcd, 0x96, 0x3e, 
	0x0c, 0xbf, 0x9f, 0x3e, 0xad, 0xe3, 0x2a, 0xbe, 0x06, 0x2c, 0x8a, 0x3d, 
	0xf5, 0x3d, 0x6a, 0xbe, 0x38, 0xfa, 0xb0, 0x3d, 0x75, 0x1e, 0x53, 0xbe, 
	0x76, 0x02, 0x9f, 0x3d, 0x2e, 0x39, 0x46, 0x3e, 0x1b, 0xa6, 0x01, 0x3e, 
	0x21, 0x55, 0x36, 0x3b, 0x73, 0x05, 0x99, 0xbe, 0xcb, 0x87, 0x19, 0x3e, 
	0x9b, 0xb4, 0x41, 0xbd, 0xae, 0x3d, 0xaa, 0x3d, 0x08, 0x81, 0xd3, 0x3e, 
	0x9e, 0x2b, 0x2c, 0xbe, 0xc4, 0xbc, 0x0d, 0xbe, 0xc4, 0x80, 0x01, 0x3f, 
	0xf7, 0x25, 0xd8, 0xbd, 0x79, 0x0c, 0x61, 0x3e, 0xc3, 0x16, 0x99, 0xbe, 
	0x0a, 0x9c, 0x93, 0xbd, 0x02, 0x89, 0xbf, 0xbe, 0x28, 0x8f, 0x99, 0xbe, 
	0x4c, 0x1c, 0x27, 0x3e, 0xad, 0xa8, 0xdb, 0x3d, 0xbb, 0xc2, 0x82, 0x3e, 
	0xcf, 0x76, 0x1e, 0x3e, 0x0f, 0xd9, 0x17, 0xbe, 0x75, 0xcf, 0x15, 0x3f, 
	0x7e, 0xa2, 0xf0, 0xbd, 0x27, 0x22, 0x54, 0x3d, 0x25, 0x4a, 0x4a, 0x3e, 
	0x80, 0x79, 0x8a, 0xbd, 0xb1, 0x94, 0xa0, 0xbe, 0xe5, 0xcf, 0x9d, 0xbe, 
	0x61, 0x8b, 0x3a, 0x3e, 0x46, 0x19, 0xad, 0xbe, 0x79, 0x02, 0xee, 0x3d, 
	0x4e, 0x80, 0x03, 0x3e, 0x08, 0xe2, 0xc3, 0x3d, 0xde, 0xca, 0x06, 0x3e, 
	0xca, 0x99, 0xca, 0xbe, 0x5d, 0x98, 0x80, 0xbe, 0x42, 0x87, 0x70, 0x3e, 
	0xa3, 0x92, 0x2b, 0xbe, 0xf1, 0x62, 0x97, 0x3e, 0xeb, 0x93, 0x9a, 0xbe, 
	0x09, 0x2c, 0xa2, 0x3e, 0x01, 0xb9, 0x14, 0x3f, 0xac, 0x1d, 0x03, 0xbf, 
	0xb9, 0x18, 0xc1, 0xbe, 0x95, 0x6f, 0x98, 0xbe, 0x12, 0x17, 0x92, 0xbe, 
	0xdd, 0x9c, 0x07, 0x3d, 0x4b, 0x88, 0x00, 0xbd, 0x4a, 0x42, 0xaa, 0x3e, 
	0xee, 0x38, 0x8c, 0x3e, 0x40, 0xc0, 0x92, 0x3e, 0x55, 0x8a, 0x73, 0x3d, 
	0xd4, 0xfe, 0x82, 0x3e, 0xbb, 0x7b, 0x14, 0x3f, 0xff, 0xc5, 0x5f, 0x3e, 
	0x4a, 0x9b, 0xa0, 0x3c, 0x11, 0x40, 0x3c, 0xbe, 0xc6, 0xf8, 0x8c, 0x3d, 
	0xfa, 0x3f, 0xec, 0x3e, 0x00, 0xc9, 0xbb, 0x3d, 0x97, 0x2f, 0x62, 0x3e, 
	0xec, 0x10, 0x55, 0x3e, 0xa8, 0x33, 0x9f, 0x3e, 0xa3, 0xf7, 0xb7, 0x3e, 
	0xea, 0x5e, 0x0c, 0x3c, 0x53, 0xf3, 0x46, 0xbc, 0xc2, 0x3c, 0xa1, 0x3d, 
	0xc6, 0xad, 0xb1, 0x3d, 0xc3, 0xdb, 0x5c, 0x3e, 0xd6, 0xcc, 0xf7, 0xbe, 
	0xe3, 0x8a, 0xc0, 0xbc, 0xa4, 0x8e, 0x3f, 0xbe, 0x98, 0xb3, 0xc8, 0xba, 
	0xac, 0xef, 0x0b, 0x3e, 0x75, 0x76, 0xcb, 0xbe, 0x06, 0x7d, 0xb8, 0x3e, 
	0x5e, 0x85, 0x03, 0xbe, 0x41, 0x28, 0x66, 0x3e, 0x6f, 0xe8, 0x85, 0xbc, 
	0xb0, 0x54, 0xa3, 0xbe, 0x17, 0x3b, 0x09, 0x3e, 0x5f, 0xb2, 0x30, 0x3e, 
	0x52, 0x3f, 0x11, 0x3e, 0x78, 0xc7, 0x57, 0x3e, 0xc3, 0xc9, 0x73, 0xbe, 
	0xe5, 0x8c, 0x6d, 0x3e, 0x2f, 0xb6, 0xdd, 0x3d, 0x6e, 0xf7, 0x29, 0x3e, 
	0x9b, 0x79, 0xf0, 0x3d, 0xef, 0xbb, 0x87, 0xbc, 0xda, 0xd7, 0x63, 0x3d, 
	0x8d, 0x4f, 0x04, 0xbe, 0x92, 0x36, 0x34, 0xbe, 0x05, 0x60, 0x84, 0xbe, 
	0x76, 0xf7, 0x01, 0xbd, 0x9f, 0x11, 0x17, 0xbe, 0x62, 0xb6, 0x9b, 0x3e, 
	0x84, 0x0a, 0x82, 0x3d, 0x25, 0xa5, 0x0f, 0xbe, 0x75, 0x97, 0xb7, 0x3d, 
	0xeb, 0xf9, 0x47, 0x3d, 0x1d, 0xac, 0x62, 0xbe, 0x7e, 0x1b, 0x98, 0x3e, 
	0x13, 0x57, 0x27, 0x3e, 0x4c, 0xe4, 0x7e, 0x3e, 0xfd, 0xad, 0xe3, 0x3e, 
	0x83, 0x14, 0xdc, 0xbe, 0x69, 0x98, 0xa5, 0x3d, 0x31, 0x36, 0x21, 0x3d, 
	0xf6, 0x9d, 0x5f, 0x3e, 0x17, 0x47, 0x02, 0xbf, 0x37, 0xff, 0x17, 0xbe, 
	0x69, 0x9d, 0x3c, 0xbe, 0x16, 0x63, 0xd4, 0xbb, 0x38, 0x04, 0xcd, 0xbc, 
	0xb7, 0x87, 0x49, 0x3d, 0x07, 0xec, 0xed, 0xbd, 0x95, 0x6e, 0x69, 0xbd, 
	0x43, 0x4d, 0x12, 0x3e, 0xc8, 0x9a, 0xc4, 0x3d, 0x05, 0xdf, 0x8c, 0x3c, 
	0x30, 0x57, 0x83, 0xbe, 0x18, 0x15, 0xf7, 0x3d, 0x03, 0xf5, 0x5b, 0xbe, 
	0x6e, 0xb1, 0x8f, 0xbe, 0x1f, 0x0d, 0x50, 0xbe, 0xd9, 0xdc, 0x05, 0xbe, 
	0x79, 0x2a, 0x52, 0x3e, 0x20, 0xbd, 0x82, 0x3e, 0x6f, 0x41, 0x3e, 0xbd, 
	0x95, 0x6b, 0x0a, 0x3e, 0x1f, 0xff, 0xb0, 0xbe, 0x47, 0xa2, 0xa8, 0xbd, 
	0x6b, 0x37, 0x7a, 0xbe, 0x32, 0x12, 0xb1, 0xbe, 0x28, 0xe1, 0xa6, 0xbe, 
	0xa8, 0x2b, 0x90, 0x3e, 0x3b, 0x2d, 0x8a, 0xbd, 0xc0, 0xe0, 0xd0, 0x3d, 
	0x6a, 0xa4, 0xb1, 0xbe, 0x09, 0x6e, 0x36, 0x3e, 0x82, 0x13, 0x46, 0x3e, 
	0x27, 0x84, 0x3a, 0xbd, 0x7e, 0xb0, 0x0b, 0x3e, 0xac, 0xa8, 0x9c, 0x3e, 
	0x28, 0x1e, 0x59, 0x3e, 0x95, 0xb8, 0x72, 0xbe, 0xee, 0x86, 0x57, 0xbe, 
	0x9c, 0x2c, 0x50, 0x3e, 0x2e, 0x71, 0xb9, 0x3d, 0xd0, 0x19, 0x1b, 0x3e, 
	0xf5, 0x4e, 0x18, 0x3e, 0x2f, 0xe1, 0x8e, 0xbe, 0x99, 0x14, 0xa3, 0x3e, 
	0x7d, 0x7c, 0xff, 0x3e, 0xb6, 0x23, 0x0d, 0x3e, 0x84, 0xdd, 0x81, 0xbd, 
	0xfa, 0x42, 0x7b, 0xbd, 0x66, 0x0b, 0x5f, 0x3e, 0xcc, 0x7a, 0xb7, 0x3e, 
	0xd2, 0xff, 0x46, 0x3e, 0xa0, 0x8a, 0x68, 0x3e, 0xcd, 0xf4, 0x64, 0x3e, 
	0x8d, 0xc7, 0xab, 0xbe, 0xe3, 0x91, 0xb8, 0x3e, 0xae, 0x64, 0xc5, 0xbe, 
	0x04, 0x09, 0xa4, 0x3e, 0x83, 0x18, 0xa5, 0xbc, 0x75, 0x54, 0xa3, 0x3d, 
	0x99, 0xfc, 0xd5, 0x3b, 0x22, 0x0e, 0xbd, 0xbc, 0xf3, 0x79, 0x87, 0xbd, 
	0x1a, 0xfb, 0x68, 0x3e, 0x87, 0x6d, 0x70, 0x3d, 0xdd, 0x35, 0x01, 0xbe, 
	0x94, 0x17, 0x23, 0xbd, 0xc5, 0x41, 0x65, 0x3e, 0x52, 0x64, 0xc7, 0x3e, 
	0xc6, 0x95, 0x6d, 0xbd, 0x24, 0xf0, 0x1f, 0x3e, 0x9e, 0x4c, 0x85, 0x3e, 
	0x71, 0xcf, 0x85, 0x3e, 0x14, 0x78, 0x2e, 0xbe, 0x7f, 0x83, 0x00, 0x3d, 
	0x72, 0xa6, 0x54, 0x3e, 0xa9, 0x85, 0x00, 0x3f, 0x6c, 0x11, 0x09, 0x3d, 
	0x55, 0x80, 0x97, 0x3e, 0xd6, 0x70, 0xa3, 0x3d, 0x7c, 0x8c, 0x85, 0xbd, 
	0xb3, 0xda, 0x5d, 0x3c, 0x89, 0x7e, 0x70, 0xbe, 0xc0, 0x4b, 0x10, 0xbe, 
	0x53, 0xe5, 0xcd, 0x3e, 0x47, 0x99, 0x73, 0x3e, 0x99, 0x0d, 0x0c, 0xbe, 
	0xa0, 0x42, 0xa9, 0x3d, 0xd2, 0x08, 0xd7, 0x3e, 0x15, 0x7b, 0x8e, 0x3d, 
	0x67, 0x90, 0x9d, 0xbd, 0x11, 0x4a, 0xfb, 0x3c, 0xf2, 0x5f, 0x2b, 0xbe, 
	0xe9, 0x22, 0x25, 0xbe, 0x36, 0x60, 0x1b, 0x3e, 0xfb, 0xc4, 0x84, 0x3e, 
	0x87, 0x3b, 0xa3, 0x3e, 0xd4, 0x4f, 0xae, 0x3d, 0xe5, 0x57, 0x1c, 0x3e, 
	0xaf, 0x16, 0x31, 0xbd, 0x68, 0xd9, 0xd6, 0x3d, 0x8f, 0x40, 0xe0, 0x3e, 
	0xc9, 0x1e, 0xee, 0x3d, 0xc7, 0xb3, 0x28, 0xbe, 0x7c, 0x0c, 0x38, 0xbf, 
	0x38, 0x88, 0x7e, 0xbd, 0x57, 0xee, 0xd9, 0xbd, 0x7c, 0x09, 0xc3, 0x3e, 
	0x2c, 0x4d, 0x1a, 0xbe, 0x62, 0x88, 0x1f, 0xbd, 0x40, 0x7e, 0x60, 0x3e, 
	0x00, 0xc8, 0xdc, 0xbb, 0xf0, 0x18, 0x1b, 0x3e, 0xdf, 0x65, 0x11, 0xbf, 
	0x99, 0xf3, 0x28, 0x3d, 0xdd, 0x07, 0x5a, 0x3e, 0x4c, 0x3b, 0x9f, 0x3e, 
	0x1a, 0xf8, 0x6f, 0xbd, 0xe5, 0x8b, 0xdc, 0x3e, 0x3c, 0x9d, 0x26, 0x3e, 
	0x89, 0xbe, 0xdd, 0x3c, 0x75, 0x72, 0x0c, 0x3e, 0x58, 0xde, 0x43, 0xbd, 
	0x71, 0x48, 0xca, 0xbe, 0xb4, 0x75, 0xaa, 0xbe, 0x65, 0x57, 0x2a, 0x3e, 
	0xd2, 0xb4, 0x4d, 0x3d, 0x58, 0x2b, 0x94, 0xbe, 0x89, 0xb2, 0x06, 0x3e, 
	0x4d, 0x2b, 0x06, 0x3e, 0x30, 0x90, 0x27, 0x3d, 0xe7, 0x34, 0x61, 0xbe, 
	0xb9, 0xf8, 0x1c, 0xbe, 0x86, 0x11, 0x63, 0x3e, 0x94, 0xa5, 0x9b, 0xbe, 
	0xb8, 0xcf, 0xa8, 0xbe, 0xa0, 0xc0, 0x63, 0x3e, 0x35, 0x88, 0x63, 0xbe, 
	0x09, 0x6e, 0x86, 0x3e, 0x9d, 0x76, 0x4b, 0xbe, 0x22, 0x40, 0x0f, 0x3f, 
	0xe0, 0xf3, 0x7c, 0xbe, 0x05, 0x57, 0xd9, 0xbd, 0x36, 0x51, 0xf3, 0xbe, 
	0xba, 0x0e, 0x23, 0xbf, 0xa8, 0x56, 0xde, 0x3e, 0x89, 0x62, 0x4f, 0xbd, 
	0x26, 0xb0, 0x4b, 0x3e, 0xee, 0x1e, 0x2e, 0x3e, 0x6f, 0x02, 0x16, 0x3e, 
	0x8b, 0x99, 0x03, 0xbe, 0x8e, 0x31, 0xee, 0xbd, 0x11, 0x3e, 0x72, 0x3e, 
	0x6d, 0xd3, 0x99, 0x3e, 0x06, 0x6f, 0xa4, 0x3c, 0xf2, 0x40, 0xcb, 0x3c, 
	0x46, 0x4e, 0x03, 0x3f, 0x32, 0x1a, 0xe1, 0x3e, 0xd1, 0xa5, 0xee, 0x3c, 
	0x7e, 0x35, 0x22, 0xbe, 0xf7, 0xe6, 0x05, 0xbe, 0xca, 0x1d, 0x19, 0x3e, 
	0x24, 0x5c, 0xc7, 0x3e, 0x6b, 0x8c, 0x1b, 0x3f, 0x2d, 0x75, 0xad, 0xbd, 
	0xf4, 0xe1, 0x9c, 0xbd, 0xe2, 0xc5, 0x4a, 0x3e, 0x48, 0x38, 0x05, 0x3f, 
	0x5a, 0x4a, 0x95, 0xbe, 0x1e, 0x58, 0x2b, 0x3f, 0x72, 0x10, 0xdb, 0xbd, 
	0x54, 0x65, 0x26, 0x3e, 0x26, 0xd1, 0x07, 0x3e, 0xd5, 0x52, 0x2f, 0xbe, 
	0x74, 0x2c, 0x00, 0x3e, 0x16, 0x33, 0xf1, 0xbc, 0x44, 0xbd, 0xf9, 0x3d, 
	0x8c, 0x7f, 0xde, 0x3d, 0xe0, 0x2a, 0xc8, 0xbe, 0x35, 0x23, 0xd7, 0xbe, 
	0xf5, 0xe4, 0x41, 0xbe, 0xe1, 0x16, 0x7c, 0xbe, 0xb2, 0x0c, 0x62, 0x3e, 
	0xb2, 0x9d, 0xb1, 0x3e, 0x73, 0x1b, 0x63, 0x3e, 0xca, 0x7e, 0x3b, 0xbe, 
	0xd2, 0xfe, 0xff, 0xff, 0x04, 0x00, 0x00, 0x00, 0xc0, 0x00, 0x00, 0x00, 
	0xa7, 0x1b, 0xa0, 0xbe, 0xe9, 0xec, 0xf3, 0xbe, 0x50, 0xa2, 0xf4, 0xbe, 
	0x07, 0x64, 0x8a, 0x3c, 0x83, 0x85, 0x8f, 0x3e, 0xbc, 0x2c, 0xbe, 0x3e, 
	0x96, 0x6d, 0xc0, 0x3e, 0x4e, 0x12, 0x0d, 0xbf, 0x01, 0x44, 0x05, 0x3f, 
	0xe5, 0x90, 0x2b, 0x3f, 0x37, 0xf4, 0xad, 0x3c, 0xb8, 0x8e, 0xd2, 0x3e, 
	0xb6, 0x01, 0x91, 0x3e, 0x7b, 0xb6, 0xfc, 0x3e, 0x88, 0x19, 0x52, 0x3e, 
	0x50, 0x70, 0x02, 0x3f, 0x91, 0x6b, 0x23, 0x3f, 0x80, 0x22, 0xe3, 0x3c, 
	0x5f, 0x7c, 0xee, 0x3e, 0x1c, 0xe7, 0x18, 0x3f, 0xc0, 0x5b, 0x95, 0xbc, 
	0xfb, 0x37, 0x04, 0x3f, 0xe5, 0x33, 0xc6, 0xbe, 0xe6, 0x52, 0xb1, 0x3e, 
	0x61, 0x6e, 0xea, 0xbe, 0x48, 0x88, 0x53, 0x3e, 0xfc, 0x2b, 0x2a, 0xbe, 
	0x4a, 0x22, 0xb2, 0xbd, 0x42, 0x9f, 0xf6, 0x3e, 0x60, 0xb5, 0xbe, 0xbe, 
	0xe0, 0x72, 0xae, 0xbe, 0x81, 0x0c, 0xae, 0xbe, 0xa6, 0x44, 0xc6, 0xbe, 
	0xb5, 0x20, 0x13, 0xbf, 0x55, 0x6b, 0x17, 0x3e, 0x32, 0x93, 0x04, 0xbe, 
	0x24, 0x36, 0x9b, 0xbe, 0xa0, 0x21, 0x97, 0xbd, 0x97, 0x4e, 0x0b, 0x3f, 
	0x7b, 0xe0, 0x01, 0xbf, 0x3a, 0xbf, 0xea, 0x3e, 0xf6, 0x35, 0xf9, 0xbe, 
	0x38, 0xdd, 0x46, 0x3e, 0x95, 0x0d, 0xcb, 0xbd, 0xee, 0xb1, 0xdb, 0xbe, 
	0xf1, 0x74, 0x9c, 0xbd, 0x1f, 0x58, 0x1c, 0xbf, 0x66, 0x95, 0x50, 0xbe, 
	0x9e, 0xff, 0xff, 0xff, 0x04, 0x00, 0x00, 0x00, 0x40, 0x00, 0x00, 0x00, 
	0xc2, 0x70, 0x97, 0x3c, 0xa1, 0xe0, 0x7d, 0x3e, 0xe5, 0x4c, 0x9c, 0x3e, 
	0x3e, 0x54, 0xcd, 0xbd, 0xe3, 0xf3, 0x44, 0x3e, 0xdc, 0x18, 0x1d, 0x3e, 
	0x06, 0xfe, 0x33, 0x3e, 0x92, 0x9c, 0xf5, 0xbd, 0xec, 0xdf, 0x1c, 0xbe, 
	0x1e, 0xd3, 0xa0, 0xbd, 0x17, 0xd8, 0x52, 0x3e, 0x3c, 0x49, 0xd7, 0x3d, 
	0xcd, 0x2d, 0x52, 0x3e, 0x12, 0xd5, 0x5c, 0x3e, 0xdc, 0x3c, 0xf1, 0x3e, 
	0xd9, 0x84, 0x0a, 0x3e, 0xea, 0xff, 0xff, 0xff, 0x04, 0x00, 0x00, 0x00, 
	0x08, 0x00, 0x00, 0x00, 0xb8, 0x2e, 0xaa, 0x3d, 0xc0, 0x9f, 0x2e, 0x3e, 
	0x00, 0x00, 0x06, 0x00, 0x08, 0x00, 0x04, 0x00, 0x06, 0x00, 0x00, 0x00, 
	0x04, 0x00, 0x00, 0x00, 0x80, 0x00, 0x00, 0x00, 0xba, 0x70, 0x86, 0xbe, 
	0xec, 0x0b, 0x38, 0x3e, 0xbe, 0x91, 0x6e, 0x3e, 0xf7, 0xa5, 0x7a, 0xbe, 
	0x6b, 0x9f, 0x44, 0xbc, 0xdd, 0x52, 0x2b, 0xbc, 0x5f, 0xd2, 0x01, 0xbe, 
	0x6e, 0x29, 0xba, 0x3e, 0xde, 0x5f, 0x7d, 0x3d, 0x57, 0xe7, 0x5b, 0x3e, 
	0x00, 0x00, 0x00, 0x00, 0xd8, 0x9d, 0x99, 0x3e, 0x39, 0xdb, 0x02, 0xbd, 
	0x0e, 0xe4, 0x62, 0x3e, 0xf8, 0xc8, 0x65, 0x3e, 0xa6, 0x81, 0x42, 0xbd, 
	0xb1, 0x74, 0xf8, 0x3d, 0x11, 0x4f, 0xd7, 0xbe, 0xe9, 0xf0, 0x55, 0x3e, 
	0x0b, 0xd3, 0x73, 0xbd, 0x32, 0x4f, 0x76, 0x3e, 0xb9, 0xe9, 0xa0, 0xbd, 
	0x05, 0x7f, 0x70, 0xbd, 0xde, 0x4f, 0xad, 0xbd, 0x22, 0x9f, 0x54, 0x3e, 
	0xb0, 0x40, 0x19, 0x3e, 0x22, 0x41, 0x4c, 0xbe, 0x94, 0x7f, 0x0f, 0x3e, 
	0x5c, 0x6a, 0xa2, 0xbd, 0x9a, 0x29, 0x1e, 0x3e, 0x37, 0xb8, 0xcd, 0xbd, 
	0x33, 0x0b, 0xa3, 0x3e, 0x20, 0xfb, 0xff, 0xff, 0x24, 0xfb, 0xff, 0xff, 
	0x0f, 0x00, 0x00, 0x00, 0x4d, 0x4c, 0x49, 0x52, 0x20, 0x43, 0x6f, 0x6e, 
	0x76, 0x65, 0x72, 0x74, 0x65, 0x64, 0x2e, 0x00, 0x01, 0x00, 0x00, 0x00, 
	0x14, 0x00, 0x00, 0x00, 0x00, 0x00, 0x0e, 0x00, 0x18, 0x00, 0x14, 0x00, 
	0x10, 0x00, 0x0c, 0x00, 0x08, 0x00, 0x04, 0x00, 0x0e, 0x00, 0x00, 0x00, 
	0x14, 0x00, 0x00, 0x00, 0x1c, 0x00, 0x00, 0x00, 0xd8, 0x00, 0x00, 0x00, 
	0xdc, 0x00, 0x00, 0x00, 0xe0, 0x00, 0x00, 0x00, 0x04, 0x00, 0x00, 0x00, 
	0x6d, 0x61, 0x69, 0x6e, 0x00, 0x00, 0x00, 0x00, 0x03, 0x00, 0x00, 0x00, 
	0x80, 0x00, 0x00, 0x00, 0x38, 0x00, 0x00, 0x00, 0x04, 0x00, 0x00, 0x00, 
	0x9a, 0xff, 0xff, 0xff, 0x10, 0x00, 0x00, 0x00, 0x00, 0x00, 0x00, 0x08, 
	0x0c, 0x00, 0x00, 0x00, 0x10, 0x00, 0x00, 0x00, 0x9c, 0xfb, 0xff, 0xff, 
	0x01, 0x00, 0x00, 0x00, 0x09, 0x00, 0x00, 0x00, 0x03, 0x00, 0x00, 0x00, 
	0x08, 0x00, 0x00, 0x00, 0x06, 0x00, 0x00, 0x00, 0x02, 0x00, 0x00, 0x00, 
	0xca, 0xff, 0xff, 0xff, 0x10, 0x00, 0x00, 0x00, 0x00, 0x00, 0x00, 0x08, 
	0x10, 0x00, 0x00, 0x00, 0x14, 0x00, 0x00, 0x00, 0xba, 0xff, 0xff, 0xff, 
	0x00, 0x00, 0x00, 0x01, 0x01, 0x00, 0x00, 0x00, 0x08, 0x00, 0x00, 0x00, 
	0x03, 0x00, 0x00, 0x00, 0x07, 0x00, 0x00, 0x00, 0x05, 0x00, 0x00, 0x00, 
	0x01, 0x00, 0x00, 0x00, 0x00, 0x00, 0x0e, 0x00, 0x16, 0x00, 0x00, 0x00, 
	0x10, 0x00, 0x0c, 0x00, 0x0b, 0x00, 0x04, 0x00, 0x0e, 0x00, 0x00, 0x00, 
	0x18, 0x00, 0x00, 0x00, 0x00, 0x00, 0x00, 0x08, 0x18, 0x00, 0x00, 0x00, 
	0x1c, 0x00, 0x00, 0x00, 0x00, 0x00, 0x06, 0x00, 0x08, 0x00, 0x07, 0x00, 
	0x06, 0x00, 0x00, 0x00, 0x00, 0x00, 0x00, 0x01, 0x01, 0x00, 0x00, 0x00, 
	0x07, 0x00, 0x00, 0x00, 0x03, 0x00, 0x00, 0x00, 0x00, 0x00, 0x00, 0x00, 
	0x04, 0x00, 0x00, 0x00, 0x03, 0x00, 0x00, 0x00, 0x01, 0x00, 0x00, 0x00, 
	0x09, 0x00, 0x00, 0x00, 0x01, 0x00, 0x00, 0x00, 0x00, 0x00, 0x00, 0x00, 
	0x0a, 0x00, 0x00, 0x00, 0x8c, 0x03, 0x00, 0x00, 0x1c, 0x03, 0x00, 0x00, 
	0xac, 0x02, 0x00, 0x00, 0x58, 0x02, 0x00, 0x00, 0x10, 0x02, 0x00, 0x00, 
	0xc4, 0x01, 0x00, 0x00, 0x78, 0x01, 0x00, 0x00, 0xf0, 0x00, 0x00, 0x00, 
	0x60, 0x00, 0x00, 0x00, 0x04, 0x00, 0x00, 0x00, 0xb2, 0xfc, 0xff, 0xff, 
	0x00, 0x00, 0x00, 0x01, 0x14, 0x00, 0x00, 0x00, 0x1c, 0x00, 0x00, 0x00, 
	0x1c, 0x00, 0x00, 0x00, 0x0a, 0x00, 0x00, 0x00, 0x34, 0x00, 0x00, 0x00, 
	0x02, 0x00, 0x00, 0x00, 0xff, 0xff, 0xff, 0xff, 0x02, 0x00, 0x00, 0x00, 
	0x9c, 0xfc, 0xff, 0xff, 0x19, 0x00, 0x00, 0x00, 0x53, 0x74, 0x61, 0x74, 
	0x65, 0x66, 0x75, 0x6c, 0x50, 0x61, 0x72, 0x74, 0x69, 0x74, 0x69, 0x6f, 
	0x6e, 0x65, 0x64, 0x43, 0x61, 0x6c, 0x6c, 0x3a, 0x30, 0x00, 0x00, 0x00, 
	0x02, 0x00, 0x00, 0x00, 0x01, 0x00, 0x00, 0x00, 0x02, 0x00, 0x00, 0x00, 
	0x0a, 0xfd, 0xff, 0xff, 0x00, 0x00, 0x00, 0x01, 0x14, 0x00, 0x00, 0x00, 
	0x1c, 0x00, 0x00, 0x00, 0x1c, 0x00, 0x00, 0x00, 0x09, 0x00, 0x00, 0x00, 
	0x68, 0x00, 0x00, 0x00, 0x02, 0x00, 0x00, 0x00, 0xff, 0xff, 0xff, 0xff, 
	0x20, 0x00, 0x00, 0x00, 0xf4, 0xfc, 0xff, 0xff, 0x4c, 0x00, 0x00, 0x00, 
	0x73, 0x65, 0x71, 0x75, 0x65, 0x6e, 0x74, 0x69, 0x61, 0x6c, 0x2f, 0x64, 
	0x65, 0x6e, 0x73, 0x65, 0x5f, 0x31, 0x2f, 0x4d, 0x61, 0x74, 0x4d, 0x75, 
	0x6c, 0x3b, 0x73, 0x65, 0x71, 0x75, 0x65, 0x6e, 0x74, 0x69, 0x61, 0x6c, 
	0x2f, 0x64, 0x65, 0x6e, 0x73, 0x65, 0x5f, 0x31, 0x2f, 0x52, 0x65, 0x6c, 
	0x75, 0x3b, 0x73, 0x65, 0x71, 0x75, 0x65, 0x6e, 0x74, 0x69, 0x61, 0x6c, 
	0x2f, 0x64, 0x65, 0x6e, 0x73, 0x65, 0x5f, 0x31, 0x2f, 0x42, 0x69, 0x61, 
	0x73, 0x41, 0x64, 0x64, 0x00, 0x00, 0x00, 0x00, 0x02, 0x00, 0x00, 0x00, 
	0x01, 0x00, 0x00, 0x00, 0x20, 0x00, 0x00, 0x00, 0x96, 0xfd, 0xff, 0xff, 
	0x00, 0x00, 0x00, 0x01, 0x14, 0x00, 0x00, 0x00, 0x1c, 0x00, 0x00, 0x00, 
	0x1c, 0x00, 0x00, 0x00, 0x08, 0x00, 0x00, 0x00, 0x60, 0x00, 0x00, 0x00, 
	0x02, 0x00, 0x00, 0x00, 0xff, 0xff, 0xff, 0xff, 0x10, 0x00, 0x00, 0x00, 
	0x80, 0xfd, 0xff, 0xff, 0x46, 0x00, 0x00, 0x00, 0x73, 0x65, 0x71, 0x75, 
	0x65, 0x6e, 0x74, 0x69, 0x61, 0x6c, 0x2f, 0x64, 0x65, 0x6e, 0x73, 0x65, 
	0x2f, 0x4d, 0x61, 0x74, 0x4d, 0x75, 0x6c, 0x3b, 0x73, 0x65, 0x71, 0x75, 
	0x65, 0x6e, 0x74, 0x69, 0x61, 0x6c, 0x2f, 0x64, 0x65, 0x6e, 0x73, 0x65, 
	0x2f, 0x52, 0x65, 0x6c, 0x75, 0x3b, 0x73, 0x65, 0x71, 0x75, 0x65, 0x6e, 
	0x74, 0x69, 0x61, 0x6c, 0x2f, 0x64, 0x65, 0x6e, 0x73, 0x65, 0x2f, 0x42, 
	0x69, 0x61, 0x73, 0x41, 0x64, 0x64, 0x00, 0x00, 0x02, 0x00, 0x00, 0x00, 
	0x01, 0x00, 0x00, 0x00, 0x10, 0x00, 0x00, 0x00, 0x86, 0xfe, 0xff, 0xff, 
	0x00, 0x00, 0x00, 0x01, 0x10, 0x00, 0x00, 0x00, 0x10, 0x00, 0x00, 0x00, 
	0x07, 0x00, 0x00, 0x00, 0x28, 0x00, 0x00, 0x00, 0xf4, 0xfd, 0xff, 0xff, 
	0x19, 0x00, 0x00, 0x00, 0x73, 0x65, 0x71, 0x75, 0x65, 0x6e, 0x74, 0x69, 
	0x61, 0x6c, 0x2f, 0x64, 0x65, 0x6e, 0x73, 0x65, 0x5f, 0x32, 0x2f, 0x4d, 
	0x61, 0x74, 0x4d, 0x75, 0x6c, 0x00, 0x00, 0x00, 0x02, 0x00, 0x00, 0x00, 
	0x02, 0x00, 0x00, 0x00, 0x20, 0x00, 0x00, 0x00, 0xce, 0xfe, 0xff, 0xff, 
	0x00, 0x00, 0x00, 0x01, 0x10, 0x00, 0x00, 0x00, 0x10, 0x00, 0x00, 0x00, 
	0x06, 0x00, 0x00, 0x00, 0x28, 0x00, 0x00, 0x00, 0x3c, 0xfe, 0xff, 0xff, 
	0x19, 0x00, 0x00, 0x00, 0x73, 0x65, 0x71, 0x75, 0x65, 0x6e, 0x74, 0x69, 
	0x61, 0x6c, 0x2f, 0x64, 0x65, 0x6e, 0x73, 0x65, 0x5f, 0x31, 0x2f, 0x4d, 
	0x61, 0x74, 0x4d, 0x75, 0x6c, 0x00, 0x00, 0x00, 0x02, 0x00, 0x00, 0x00, 
	0x20, 0x00, 0x00, 0x00, 0x10, 0x00, 0x00, 0x00, 0x16, 0xff, 0xff, 0xff, 
	0x00, 0x00, 0x00, 0x01, 0x10, 0x00, 0x00, 0x00, 0x10, 0x00, 0x00, 0x00, 
	0x05, 0x00, 0x00, 0x00, 0x24, 0x00, 0x00, 0x00, 0x84, 0xfe, 0xff, 0xff, 
	0x17, 0x00, 0x00, 0x00, 0x73, 0x65, 0x71, 0x75, 0x65, 0x6e, 0x74, 0x69, 
	0x61, 0x6c, 0x2f, 0x64, 0x65, 0x6e, 0x73, 0x65, 0x2f, 0x4d, 0x61, 0x74, 
	0x4d, 0x75, 0x6c, 0x00, 0x02, 0x00, 0x00, 0x00, 0x10, 0x00, 0x00, 0x00, 
	0x03, 0x00, 0x00, 0x00, 0x5a, 0xff, 0xff, 0xff, 0x00, 0x00, 0x00, 0x01, 
	0x10, 0x00, 0x00, 0x00, 0x10, 0x00, 0x00, 0x00, 0x04, 0x00, 0x00, 0x00, 
	0x34, 0x00, 0x00, 0x00, 0xc8, 0xfe, 0xff, 0xff, 0x27, 0x00, 0x00, 0x00, 
	0x73, 0x65, 0x71, 0x75, 0x65, 0x6e, 0x74, 0x69, 0x61, 0x6c, 0x2f, 0x64, 
	0x65, 0x6e, 0x73, 0x65, 0x2f, 0x42, 0x69, 0x61, 0x73, 0x41, 0x64, 0x64, 
	0x2f, 0x52, 0x65, 0x61, 0x64, 0x56, 0x61, 0x72, 0x69, 0x61, 0x62, 0x6c, 
	0x65, 0x4f, 0x70, 0x00, 0x01, 0x00, 0x00, 0x00, 0x10, 0x00, 0x00, 0x00, 
	0xaa, 0xff, 0xff, 0xff, 0x00, 0x00, 0x00, 0x01, 0x10, 0x00, 0x00, 0x00, 
	0x10, 0x00, 0x00, 0x00, 0x03, 0x00, 0x00, 0x00, 0x38, 0x00, 0x00, 0x00, 
	0x18, 0xff, 0xff, 0xff, 0x29, 0x00, 0x00, 0x00, 0x73, 0x65, 0x71, 0x75, 
	0x65, 0x6e, 0x74, 0x69, 0x61, 0x6c, 0x2f, 0x64, 0x65, 0x6e, 0x73, 0x65, 
	0x5f, 0x32, 0x2f, 0x42, 0x69, 0x61, 0x73, 0x41, 0x64, 0x64, 0x2f, 0x52, 
	0x65, 0x61, 0x64, 0x56, 0x61, 0x72, 0x69, 0x61, 0x62, 0x6c, 0x65, 0x4f, 
	0x70, 0x00, 0x00, 0x00, 0x01, 0x00, 0x00, 0x00, 0x02, 0x00, 0x00, 0x00, 
	0x00, 0x00, 0x16, 0x00, 0x18, 0x00, 0x14, 0x00, 0x00, 0x00, 0x10, 0x00, 
	0x0c, 0x00, 0x08, 0x00, 0x00, 0x00, 0x00, 0x00, 0x00, 0x00, 0x07, 0x00, 
	0x16, 0x00, 0x00, 0x00, 0x00, 0x00, 0x00, 0x01, 0x10, 0x00, 0x00, 0x00, 
	0x10, 0x00, 0x00, 0x00, 0x02, 0x00, 0x00, 0x00, 0x38, 0x00, 0x00, 0x00, 
	0x84, 0xff, 0xff, 0xff, 0x29, 0x00, 0x00, 0x00, 0x73, 0x65, 0x71, 0x75, 
	0x65, 0x6e, 0x74, 0x69, 0x61, 0x6c, 0x2f, 0x64, 0x65, 0x6e, 0x73, 0x65, 
	0x5f, 0x31, 0x2f, 0x42, 0x69, 0x61, 0x73, 0x41, 0x64, 0x64, 0x2f, 0x52, 
	0x65, 0x61, 0x64, 0x56, 0x61, 0x72, 0x69, 0x61, 0x62, 0x6c, 0x65, 0x4f, 
	0x70, 0x00, 0x00, 0x00, 0x01, 0x00, 0x00, 0x00, 0x20, 0x00, 0x00, 0x00, 
	0x00, 0x00, 0x16, 0x00, 0x1c, 0x00, 0x18, 0x00, 0x00, 0x00, 0x14, 0x00, 
	0x10, 0x00, 0x0c, 0x00, 0x00, 0x00, 0x00, 0x00, 0x08, 0x00, 0x07, 0x00, 
	0x16, 0x00, 0x00, 0x00, 0x00, 0x00, 0x00, 0x01, 0x14, 0x00, 0x00, 0x00, 
	0x20, 0x00, 0x00, 0x00, 0x20, 0x00, 0x00, 0x00, 0x01, 0x00, 0x00, 0x00, 
	0x3c, 0x00, 0x00, 0x00, 0x02, 0x00, 0x00, 0x00, 0xff, 0xff, 0xff, 0xff, 
	0x03, 0x00, 0x00, 0x00, 0x04, 0x00, 0x04, 0x00, 0x04, 0x00, 0x00, 0x00, 
	0x1d, 0x00, 0x00, 0x00, 0x73, 0x65, 0x72, 0x76, 0x69, 0x6e, 0x67, 0x5f, 
	0x64, 0x65, 0x66, 0x61, 0x75, 0x6c, 0x74, 0x5f, 0x64, 0x65, 0x6e, 0x73, 
	0x65, 0x5f, 0x69, 0x6e, 0x70, 0x75, 0x74, 0x3a, 0x30, 0x00, 0x00, 0x00, 
	0x02, 0x00, 0x00, 0x00, 0x01, 0x00, 0x00, 0x00, 0x03, 0x00, 0x00, 0x00, 
	0x01, 0x00, 0x00, 0x00, 0x10, 0x00, 0x00, 0x00, 0x0c, 0x00, 0x0c, 0x00, 
	0x0b, 0x00, 0x00, 0x00, 0x00, 0x00, 0x04, 0x00, 0x0c, 0x00, 0x00, 0x00, 
	0x09, 0x00, 0x00, 0x00, 0x00, 0x00, 0x00, 0x09
};
const int invkine_model_len = 4580;