
#ifdef __has_attribute
#define HAVE_ATTRIBUTE(x) __has_attribute(x)
#else
#define HAVE_ATTRIBUTE(x) 0
#endif
#if HAVE_ATTRIBUTE(aligned) || (defined(__GNUC__) && !defined(__clang__))
#define DATA_ALIGN_ATTRIBUTE __attribute__((aligned(4)))
#else
#define DATA_ALIGN_ATTRIBUTE
#endif

const unsigned char invkine_model[] DATA_ALIGN_ATTRIBUTE = {
	0x1c, 0x00, 0x00, 0x00, 0x54, 0x46, 0x4c, 0x33, 0x14, 0x00, 0x20, 0x00, 
	0x1c, 0x00, 0x18, 0x00, 0x14, 0x00, 0x10, 0x00, 0x0c, 0x00, 0x00, 0x00, 
	0x08, 0x00, 0x04, 0x00, 0x14, 0x00, 0x00, 0x00, 0x1c, 0x00, 0x00, 0x00, 
	0x90, 0x00, 0x00, 0x00, 0xe8, 0x00, 0x00, 0x00, 0xc8, 0x07, 0x00, 0x00, 
	0xd8, 0x07, 0x00, 0x00, 0xd0, 0x0c, 0x00, 0x00, 0x03, 0x00, 0x00, 0x00, 
	0x01, 0x00, 0x00, 0x00, 0x10, 0x00, 0x00, 0x00, 0x00, 0x00, 0x0a, 0x00, 
	0x10, 0x00, 0x0c, 0x00, 0x08, 0x00, 0x04, 0x00, 0x0a, 0x00, 0x00, 0x00, 
	0x0c, 0x00, 0x00, 0x00, 0x1c, 0x00, 0x00, 0x00, 0x38, 0x00, 0x00, 0x00, 
	0x0f, 0x00, 0x00, 0x00, 0x73, 0x65, 0x72, 0x76, 0x69, 0x6e, 0x67, 0x5f, 
	0x64, 0x65, 0x66, 0x61, 0x75, 0x6c, 0x74, 0x00, 0x01, 0x00, 0x00, 0x00, 
	0x04, 0x00, 0x00, 0x00, 0x98, 0xff, 0xff, 0xff, 0x09, 0x00, 0x00, 0x00, 
	0x04, 0x00, 0x00, 0x00, 0x07, 0x00, 0x00, 0x00, 0x64, 0x65, 0x6e, 0x73, 
	0x65, 0x5f, 0x32, 0x00, 0x01, 0x00, 0x00, 0x00, 0x04, 0x00, 0x00, 0x00, 
	0x02, 0xf9, 0xff, 0xff, 0x04, 0x00, 0x00, 0x00, 0x0b, 0x00, 0x00, 0x00, 
	0x64, 0x65, 0x6e, 0x73, 0x65, 0x5f, 0x69, 0x6e, 0x70, 0x75, 0x74, 0x00, 
	0x02, 0x00, 0x00, 0x00, 0x34, 0x00, 0x00, 0x00, 0x04, 0x00, 0x00, 0x00, 
	0xdc, 0xff, 0xff, 0xff, 0x0c, 0x00, 0x00, 0x00, 0x04, 0x00, 0x00, 0x00, 
	0x13, 0x00, 0x00, 0x00, 0x43, 0x4f, 0x4e, 0x56, 0x45, 0x52, 0x53, 0x49, 
	0x4f, 0x4e, 0x5f, 0x4d, 0x45, 0x54, 0x41, 0x44, 0x41, 0x54, 0x41, 0x00, 
	0x08, 0x00, 0x0c, 0x00, 0x08, 0x00, 0x04, 0x00, 0x08, 0x00, 0x00, 0x00, 
	0x0b, 0x00, 0x00, 0x00, 0x04, 0x00, 0x00, 0x00, 0x13, 0x00, 0x00, 0x00, 
	0x6d, 0x69, 0x6e, 0x5f, 0x72, 0x75, 0x6e, 0x74, 0x69, 0x6d, 0x65, 0x5f, 
	0x76, 0x65, 0x72, 0x73, 0x69, 0x6f, 0x6e, 0x00, 0x0d, 0x00, 0x00, 0x00, 
	0xdc, 0x06, 0x00, 0x00, 0xd4, 0x06, 0x00, 0x00, 0x84, 0x06, 0x00, 0x00, 
	0x64, 0x06, 0x00, 0x00, 0x14, 0x06, 0x00, 0x00, 0x44, 0x05, 0x00, 0x00, 
	0x34, 0x01, 0x00, 0x00, 0xa4, 0x00, 0x00, 0x00, 0x9c, 0x00, 0x00, 0x00, 
	0x94, 0x00, 0x00, 0x00, 0x8c, 0x00, 0x00, 0x00, 0x6c, 0x00, 0x00, 0x00, 
	0x04, 0x00, 0x00, 0x00, 0xae, 0xf9, 0xff, 0xff, 0x04, 0x00, 0x00, 0x00, 
	0x58, 0x00, 0x00, 0x00, 0x0c, 0x00, 0x00, 0x00, 0x08, 0x00, 0x0e, 0x00, 
	0x08, 0x00, 0x04, 0x00, 0x08, 0x00, 0x00, 0x00, 0x10, 0x00, 0x00, 0x00, 
	0x28, 0x00, 0x00, 0x00, 0x00, 0x00, 0x06, 0x00, 0x08, 0x00, 0x04, 0x00, 
	0x06, 0x00, 0x00, 0x00, 0x04, 0x00, 0x00, 0x00, 0x01, 0x00, 0x00, 0x00, 
	0xea, 0x03, 0x00, 0x00, 0x00, 0x00, 0x0a, 0x00, 0x10, 0x00, 0x0c, 0x00, 
	0x08, 0x00, 0x04, 0x00, 0x0a, 0x00, 0x00, 0x00, 0x02, 0x00, 0x00, 0x00, 
	0x02, 0x00, 0x00, 0x00, 0x04, 0x00, 0x00, 0x00, 0x06, 0x00, 0x00, 0x00, 
	0x32, 0x2e, 0x31, 0x32, 0x2e, 0x30, 0x00, 0x00, 0x12, 0xfa, 0xff, 0xff, 
	0x04, 0x00, 0x00, 0x00, 0x10, 0x00, 0x00, 0x00, 0x31, 0x2e, 0x35, 0x2e, 
	0x30, 0x00, 0x00, 0x00, 0x00, 0x00, 0x00, 0x00, 0x00, 0x00, 0x00, 0x00, 
	0xfc, 0xf4, 0xff, 0xff, 0x00, 0xf5, 0xff, 0xff, 0x04, 0xf5, 0xff, 0xff, 
	0x3a, 0xfa, 0xff, 0xff, 0x04, 0x00, 0x00, 0x00, 0x80, 0x00, 0x00, 0x00, 
	0x21, 0x60, 0x7a, 0x40, 0x68, 0x43, 0x2e, 0xbe, 0x6c, 0x72, 0x93, 0xbf, 
	0xe3, 0xe2, 0x04, 0x3f, 0xf0, 0xa6, 0x12, 0x3f, 0x2a, 0x5c, 0x07, 0x3f, 
	0x58, 0x11, 0xab, 0x3f, 0x41, 0x87, 0xd6, 0xbd, 0x2e, 0x49, 0x84, 0xc0, 
	0x84, 0x75, 0xbb, 0xbd, 0x26, 0xf1, 0x68, 0x3f, 0x27, 0x81, 0xb0, 0x3f, 
	0x00, 0x6d, 0xda, 0x3e, 0xa3, 0x99, 0x11, 0x3f, 0x5f, 0xff, 0x3e, 0xbf, 
	0x55, 0x17, 0x93, 0x3e, 0x43, 0x8a, 0x33, 0xbe, 0x90, 0xd1, 0x4a, 0xbe, 
	0x13, 0x0c, 0xb3, 0x3e, 0x2e, 0x80, 0x4b, 0xbe, 0xd5, 0xd4, 0xf6, 0xbc, 
	0x88, 0x8a, 0x68, 0xbf, 0xbf, 0xce, 0x01, 0xbf, 0x4e, 0x8b, 0x16, 0x3e, 
	0xe7, 0x76, 0x43, 0x3d, 0xce, 0xf3, 0x19, 0x3f, 0xa5, 0x19, 0x78, 0xbe, 
	0xa9, 0xd3, 0x82, 0x3d, 0x81, 0x2c, 0x92, 0xbf, 0x89, 0x3c, 0xdf, 0xbe, 
	0xaf, 0xe3, 0xb2, 0xbe, 0x9b, 0x0d, 0xf5, 0x3e, 0xc6, 0xfa, 0xff, 0xff, 
	0x04, 0x00, 0x00, 0x00, 0x00, 0x04, 0x00, 0x00, 0xb3, 0xe2, 0x9e, 0x3f, 
	0xde, 0x5c, 0xcf, 0x3d, 0xc3, 0xce, 0x5b, 0xbf, 0x74, 0xfa, 0x5a, 0x3e, 
	0xbf, 0xbd, 0x05, 0x3f, 0x34, 0xee, 0x28, 0xc0, 0xa8, 0xc2, 0x78, 0x3e, 
	0x0c, 0xaa, 0x8c, 0x3f, 0xba, 0xb9, 0xd7, 0xbe, 0xed, 0xfc, 0xa6, 0x3e, 
	0x00, 0x03, 0x1f, 0x3f, 0x15, 0x58, 0x90, 0x3e, 0xe6, 0x72, 0x6a, 0x3f, 
	0x0b, 0x35, 0x13, 0x40, 0x8a, 0x9e, 0x2b, 0x3e, 0xca, 0x81, 0x0b, 0xc0, 
	0xcd, 0xf5, 0x82, 0xbe, 0x8e, 0x31, 0x36, 0xbe, 0x76, 0x32, 0x02, 0xbf, 
	0xb2, 0x47, 0x02, 0x3e, 0x76, 0x10, 0x88, 0xbe, 0x67, 0xde, 0xf1, 0xbe, 
	0xb0, 0x42, 0xca, 0x3d, 0xfa, 0xd5, 0x04, 0xbf, 0xa2, 0xca, 0x96, 0xbe, 
	0x14, 0x4a, 0xd8, 0xbe, 0xa8, 0x79, 0x9c, 0x3b, 0x40, 0x44, 0xf9, 0x3b, 
	0x43, 0xf4, 0x56, 0xbe, 0x1d, 0x4f, 0x8e, 0x3d, 0xfe, 0xd3, 0xad, 0xbe, 
	0x43, 0x44, 0x45, 0xbd, 0xbc, 0x3a, 0xa3, 0x3f, 0xa7, 0x20, 0xb4, 0x3e, 
	0x02, 0x6b, 0x6c, 0x3d, 0x05, 0x42, 0x30, 0x3e, 0xb2, 0x0a, 0xc4, 0x3d, 
	0x78, 0xf9, 0x39, 0x3f, 0x7f, 0x56, 0x93, 0xbf, 0xbc, 0xbe, 0x3d, 0x3f, 
	0x35, 0x20, 0x27, 0x3e, 0x49, 0xd9, 0xad, 0x3d, 0x3a, 0xa2, 0x69, 0xbf, 
	0x5d, 0x1c, 0x2b, 0x3d, 0x2e, 0x76, 0x51, 0xbf, 0x58, 0x99, 0x85, 0xbd, 
	0x9d, 0xb9, 0x91, 0xbc, 0x37, 0x85, 0x83, 0x3f, 0x33, 0x48, 0x28, 0x3f, 
	0x9f, 0x38, 0xb6, 0xbe, 0x6f, 0x48, 0x8b, 0xbf, 0x62, 0x7e, 0x00, 0x3f, 
	0xe4, 0x89, 0x3e, 0xbe, 0x67, 0xc1, 0x93, 0xbd, 0x5b, 0x27, 0x32, 0x3f, 
	0xfc, 0x22, 0xd4, 0x3d, 0xbc, 0x77, 0x5a, 0xbe, 0x3b, 0xe0, 0x0a, 0xbd, 
	0x96, 0xa1, 0x85, 0x3f, 0x0c, 0xef, 0x9f, 0xbe, 0x9e, 0xf6, 0x40, 0xc0, 
	0xd5, 0x54, 0xf2, 0xbe, 0xd7, 0x07, 0x1a, 0xc0, 0xbe, 0xd9, 0x42, 0xbe, 
	0x84, 0x96, 0x85, 0x3f, 0x2d, 0xdb, 0x38, 0xbe, 0xfd, 0xdc, 0x9e, 0xbf, 
	0x63, 0x33, 0x88, 0x3e, 0x16, 0xa3, 0xc0, 0x3d, 0xff, 0xc4, 0x03, 0xbf, 
	0xaa, 0xd3, 0xc9, 0x3f, 0x82, 0x7e, 0x79, 0x3e, 0x1d, 0xd8, 0x93, 0xbe, 
	0x62, 0x8e, 0x86, 0x3e, 0x5f, 0x15, 0xff, 0xbf, 0x66, 0xa8, 0xb7, 0xbe, 
	0xf3, 0x36, 0x7d, 0xbe, 0x29, 0x16, 0xee, 0xbe, 0x84, 0xf6, 0xce, 0xc0, 
	0x78, 0xcb, 0x8d, 0xc0, 0x2c, 0x09, 0xa0, 0xbf, 0x24, 0xf5, 0x82, 0xbe, 
	0x87, 0x9f, 0x69, 0x3e, 0xd2, 0x2a, 0x83, 0x3e, 0xef, 0xbe, 0xc5, 0xbe, 
	0xcd, 0x20, 0x14, 0xbc, 0x2b, 0xc7, 0xcf, 0xc0, 0x9c, 0xf6, 0x4f, 0xbf, 
	0x49, 0xf1, 0x09, 0xbe, 0x77, 0xee, 0x07, 0xbe, 0x87, 0x3c, 0xbc, 0x3e, 
	0xb9, 0x5e, 0xce, 0xbe, 0xc1, 0x79, 0x54, 0x40, 0x11, 0xa7, 0x92, 0x3f, 
	0x11, 0xa4, 0xb8, 0xbe, 0x7d, 0xf7, 0xd8, 0x3f, 0x58, 0xc6, 0x8b, 0xbf, 
	0xd9, 0x46, 0xb3, 0xbd, 0x38, 0xe2, 0x79, 0xbe, 0x16, 0x42, 0xa3, 0x3e, 
	0x20, 0xa8, 0x81, 0xbe, 0x41, 0xe9, 0xec, 0x3e, 0x4e, 0x74, 0x76, 0xbf, 
	0xfb, 0x61, 0x77, 0xbe, 0xd4, 0xc3, 0x6f, 0x3e, 0xd3, 0xf0, 0xc0, 0x3d, 
	0xe9, 0x1a, 0xf8, 0x3f, 0x5e, 0x11, 0xc3, 0xbe, 0x62, 0x1b, 0xf5, 0x3f, 
	0x6b, 0x26, 0x85, 0x3e, 0x6b, 0x3b, 0x6f, 0x3e, 0xb4, 0xfe, 0x17, 0x40, 
	0xe1, 0xbb, 0xed, 0xbe, 0xe5, 0xa6, 0x38, 0x3d, 0x3b, 0xb6, 0x2c, 0xbf, 
	0x78, 0xa3, 0xf1, 0xbe, 0x35, 0xe5, 0x71, 0x3e, 0xf1, 0x72, 0x95, 0xbd, 
	0xe0, 0x61, 0x08, 0xbf, 0x6c, 0xe5, 0x30, 0x3e, 0xfa, 0xb8, 0xbf, 0x3e, 
	0xd2, 0x1f, 0x44, 0x3e, 0xef, 0xda, 0x65, 0xbd, 0xc0, 0xf4, 0x97, 0xbe, 
	0x1a, 0x92, 0xef, 0xbd, 0xa6, 0xbd, 0xe7, 0xbe, 0xcd, 0x99, 0xd1, 0xbe, 
	0xa6, 0x07, 0xa6, 0xbd, 0x89, 0x7c, 0xb3, 0x3f, 0xa9, 0x74, 0xcd, 0x3d, 
	0x57, 0x55, 0x90, 0xbf, 0x74, 0x5f, 0xea, 0xbc, 0x22, 0xb5, 0x82, 0x3e, 
	0xf0, 0xdf, 0x6d, 0xc0, 0xd3, 0x95, 0x93, 0x3f, 0xda, 0x20, 0x6f, 0x3f, 
	0x58, 0x27, 0xcc, 0x3d, 0x70, 0x52, 0x02, 0x3d, 0xcd, 0x4a, 0xd5, 0x3f, 
	0x6d, 0x33, 0x86, 0x3e, 0xe1, 0xae, 0x2d, 0x3e, 0x93, 0xf8, 0x1d, 0x40, 
	0x26, 0x6b, 0x92, 0xc0, 0x11, 0x67, 0xf3, 0xbf, 0xeb, 0x9c, 0xb6, 0x3f, 
	0x30, 0xdf, 0xa9, 0xbd, 0x51, 0x61, 0x3d, 0xbf, 0xb2, 0xd2, 0x2c, 0xbe, 
	0x70, 0xca, 0x1d, 0xbe, 0x05, 0x48, 0xa3, 0x3d, 0x8a, 0x0e, 0x42, 0x3d, 
	0x08, 0x92, 0x02, 0x3f, 0x4a, 0xbf, 0xbe, 0x3e, 0xcb, 0xaf, 0xfd, 0xbd, 
	0xfa, 0x5d, 0x06, 0xbe, 0xeb, 0xea, 0x8a, 0x3e, 0xa8, 0xb8, 0x48, 0xc0, 
	0xe3, 0xa6, 0xc3, 0x3e, 0x92, 0x01, 0x30, 0xbf, 0xf7, 0x1b, 0xf1, 0xbe, 
	0xad, 0x9b, 0xa8, 0x3f, 0x0b, 0x3e, 0xf0, 0x3e, 0x5f, 0x37, 0x3e, 0x3f, 
	0xe3, 0x06, 0x8c, 0xbe, 0x1e, 0xf8, 0xd4, 0x3e, 0x4a, 0xf7, 0x5c, 0xbf, 
	0x28, 0xa0, 0x84, 0xbe, 0x5b, 0x46, 0x0b, 0x3f, 0x8a, 0x39, 0x2e, 0x3e, 
	0x24, 0xc2, 0xd9, 0xbd, 0x32, 0x70, 0x35, 0x3f, 0xb5, 0x1e, 0x87, 0xbb, 
	0x0e, 0x5c, 0xbe, 0x3f, 0x67, 0xeb, 0xe3, 0x3e, 0xc8, 0x69, 0x00, 0xc1, 
	0xe0, 0xfb, 0x4a, 0x3f, 0xda, 0x44, 0x95, 0x3f, 0xd2, 0xa8, 0x62, 0x3e, 
	0x67, 0xd4, 0xd4, 0xbe, 0xe3, 0x1e, 0xe1, 0xbd, 0x03, 0x6a, 0xa7, 0xbc, 
	0x98, 0xce, 0x08, 0xc0, 0xcf, 0xed, 0x01, 0x3f, 0x04, 0xad, 0xcf, 0x3e, 
	0x3b, 0xc7, 0x75, 0x3d, 0x22, 0x19, 0xdd, 0xbe, 0x1c, 0x9f, 0x26, 0x3d, 
	0xf0, 0xa4, 0xae, 0x3e, 0x0e, 0xa7, 0x2e, 0xbe, 0xcd, 0x25, 0xd1, 0x3f, 
	0x04, 0x1a, 0xdb, 0xbe, 0x42, 0xf9, 0xba, 0xbf, 0x77, 0x67, 0xa7, 0xc0, 
	0x54, 0x2e, 0xe9, 0xbe, 0xbe, 0x50, 0x02, 0x3e, 0x40, 0x96, 0xbc, 0x3e, 
	0x4e, 0xcf, 0x83, 0xbd, 0x50, 0xd5, 0x1e, 0xbe, 0x19, 0x98, 0x60, 0x3f, 
	0x11, 0x92, 0x29, 0xc0, 0xc1, 0xc3, 0x28, 0xbe, 0x32, 0x53, 0x82, 0x3e, 
	0x79, 0xd4, 0x60, 0x40, 0x2e, 0x3b, 0x76, 0xbd, 0x73, 0xe9, 0x5b, 0xbe, 
	0xc0, 0xfb, 0x4c, 0xbf, 0xee, 0xe4, 0x83, 0x3f, 0x9a, 0xcf, 0xe4, 0x3f, 
	0x31, 0x07, 0xa2, 0xbe, 0xdb, 0xf7, 0xd8, 0xbd, 0x30, 0x25, 0x8b, 0x3f, 
	0x1c, 0xda, 0x64, 0x3e, 0x16, 0x71, 0x98, 0xbe, 0xaf, 0xaa, 0x15, 0x3e, 
	0x80, 0xeb, 0xbf, 0x3f, 0x3c, 0xe9, 0x45, 0xbf, 0x8b, 0x9d, 0x2c, 0xbe, 
	0xc0, 0x2f, 0xfa, 0x3e, 0x9b, 0x13, 0x13, 0x3f, 0x05, 0x8a, 0xa3, 0x3e, 
	0xb5, 0xa5, 0x02, 0xc0, 0x2d, 0x20, 0x2f, 0x3f, 0x83, 0x7b, 0x34, 0x3f, 
	0xb8, 0xe2, 0xd1, 0xbf, 0x1d, 0xbe, 0x25, 0x3f, 0x4c, 0x97, 0xc4, 0x3e, 
	0xa7, 0x7f, 0x22, 0x40, 0x8f, 0x07, 0xf4, 0xbe, 0x78, 0x39, 0x00, 0x3e, 
	0xb1, 0xfc, 0x50, 0xbf, 0xf8, 0x1e, 0xc0, 0xbf, 0xc4, 0xf2, 0x58, 0x3f, 
	0xda, 0x02, 0x16, 0x3e, 0x64, 0x7f, 0x3b, 0xbe, 0xb0, 0x49, 0xfb, 0x3e, 
	0x36, 0xbf, 0x94, 0x3e, 0xe2, 0x41, 0xab, 0x3f, 0x5a, 0xd6, 0x2e, 0x3f, 
	0xb2, 0x36, 0x49, 0x40, 0x59, 0xbb, 0x10, 0x3f, 0x7a, 0x5f, 0x9d, 0x3e, 
	0x92, 0x79, 0xa0, 0xbe, 0x6e, 0x6d, 0x9f, 0xbf, 0x39, 0x18, 0x0a, 0xbb, 
	0xf4, 0xdb, 0x92, 0xbd, 0x01, 0xf1, 0x90, 0xbd, 0xf7, 0xde, 0xda, 0x3f, 
	0xf1, 0x45, 0x99, 0x3e, 0x8b, 0xce, 0xf7, 0x3e, 0x8d, 0x95, 0x88, 0xbe, 
	0x68, 0xbf, 0xa6, 0x3f, 0xcd, 0x80, 0x0b, 0xbe, 0x76, 0x8e, 0x47, 0xc0, 
	0x79, 0x4f, 0xc0, 0xbd, 0xab, 0xf4, 0x36, 0xbf, 0x64, 0xb0, 0xe4, 0xbe, 
	0xd2, 0xfe, 0xff, 0xff, 0x04, 0x00, 0x00, 0x00, 0xc0, 0x00, 0x00, 0x00, 
	0x71, 0x3d, 0xfe, 0xbf, 0xb1, 0xdf, 0x1a, 0xc0, 0x3c, 0x82, 0x99, 0x3e, 
	0x53, 0x65, 0x36, 0xbe, 0x78, 0x15, 0xf2, 0x3d, 0x40, 0x2b, 0x3d, 0xbc, 
	0xd1, 0x45, 0xf4, 0xbf, 0xc4, 0xd7, 0x32, 0x40, 0x56, 0x5a, 0x0c, 0xbe, 
	0xf7, 0x94, 0x70, 0x3e, 0x64, 0x44, 0x7e, 0x3d, 0xa9, 0x15, 0xbe, 0xbe, 
	0xe2, 0x72, 0xd8, 0xbe, 0xbc, 0x0b, 0xaa, 0x3c, 0xdc, 0x8a, 0xe9, 0xbd, 
	0xe7, 0xc5, 0x49, 0xc0, 0xf6, 0x2a, 0x3a, 0x41, 0x19, 0x8f, 0xd5, 0xbe, 
	0x78, 0x5e, 0x09, 0x40, 0x4c, 0xc6, 0xb1, 0xbf, 0x90, 0xe4, 0x42, 0x3d, 
	0xb7, 0xa0, 0x7f, 0xbf, 0x69, 0x49, 0x98, 0xbf, 0x80, 0x90, 0x96, 0x3e, 
	0x29, 0x33, 0x0c, 0x3e, 0x33, 0xe4, 0xcc, 0xbe, 0xc3, 0x74, 0xf5, 0xbe, 
	0x79, 0x19, 0x6d, 0x3e, 0xe5, 0xb9, 0x66, 0xbe, 0xcc, 0x3e, 0x4b, 0x3e, 
	0x98, 0xbd, 0x55, 0xc0, 0xd3, 0x00, 0xc2, 0xbd, 0xa0, 0x78, 0xa0, 0x3d, 
	0xda, 0xd1, 0x02, 0x3e, 0x3b, 0x79, 0x3d, 0x3e, 0xcd, 0xca, 0xe5, 0xbe, 
	0x81, 0x47, 0x08, 0xc0, 0xf2, 0x2d, 0x9c, 0xbc, 0x98, 0x5a, 0xc0, 0xbe, 
	0x53, 0xca, 0x70, 0xc0, 0x07, 0xa7, 0x7e, 0xc1, 0x2f, 0x16, 0x04, 0x3f, 
	0x3a, 0xcb, 0xdc, 0x40, 0x73, 0xd8, 0xf8, 0xbe, 0x40, 0x71, 0xa1, 0x3e, 
	0x44, 0xb2, 0x7f, 0xc0, 0xfa, 0x59, 0x93, 0x40, 0x8e, 0x3d, 0xb4, 0x3e, 
	0x9e, 0xff, 0xff, 0xff, 0x04, 0x00, 0x00, 0x00, 0x40, 0x00, 0x00, 0x00, 
	0x5a, 0x15, 0x21, 0x3f, 0x07, 0x37, 0xb8, 0xbd, 0xde, 0xd9, 0x05, 0x3e, 
	0xce, 0x76, 0x7b, 0xbd, 0xce, 0xde, 0xe0, 0xbd, 0x22, 0x73, 0x55, 0x3f, 
	0x09, 0x88, 0x03, 0x3f, 0x59, 0x4a, 0x9f, 0x3e, 0xb2, 0xfb, 0x02, 0xbd, 
	0xcc, 0x90, 0x51, 0xbd, 0x21, 0x2d, 0x9d, 0x3e, 0xbf, 0x70, 0x8b, 0xbd, 
	0x63, 0xe6, 0x9f, 0xbe, 0xdc, 0x1e, 0x0f, 0x3f, 0xf4, 0x4e, 0xb2, 0x3d, 
	0xca, 0x00, 0xd9, 0x3c, 0xea, 0xff, 0xff, 0xff, 0x04, 0x00, 0x00, 0x00, 
	0x08, 0x00, 0x00, 0x00, 0x2a, 0x42, 0xdf, 0x3d, 0x7f, 0xe8, 0xb5, 0x3f, 
	0x00, 0x00, 0x06, 0x00, 0x08, 0x00, 0x04, 0x00, 0x06, 0x00, 0x00, 0x00, 
	0x04, 0x00, 0x00, 0x00, 0x40, 0x00, 0x00, 0x00, 0x18, 0x93, 0x78, 0xbe, 
	0xca, 0xeb, 0xcc, 0xbd, 0xe3, 0x5b, 0xfc, 0x3e, 0x80, 0x60, 0xee, 0x3e, 
	0x5f, 0x01, 0x4c, 0x3f, 0xba, 0xb0, 0x93, 0xbf, 0x5c, 0xa3, 0x01, 0x3d, 
	0xc6, 0x22, 0x51, 0xbe, 0x56, 0xaa, 0x78, 0xbe, 0x10, 0x21, 0x43, 0x3f, 
	0xb7, 0xb5, 0x94, 0xbb, 0x79, 0xd1, 0x63, 0x3e, 0x79, 0xe1, 0x90, 0xbf, 
	0x8c, 0xe1, 0x85, 0x3e, 0x0f, 0x62, 0x18, 0xbf, 0x25, 0x8d, 0x3c, 0x3f, 
	0x20, 0xfb, 0xff, 0xff, 0x24, 0xfb, 0xff, 0xff, 0x0f, 0x00, 0x00, 0x00, 
	0x4d, 0x4c, 0x49, 0x52, 0x20, 0x43, 0x6f, 0x6e, 0x76, 0x65, 0x72, 0x74, 
	0x65, 0x64, 0x2e, 0x00, 0x01, 0x00, 0x00, 0x00, 0x14, 0x00, 0x00, 0x00, 
	0x00, 0x00, 0x0e, 0x00, 0x18, 0x00, 0x14, 0x00, 0x10, 0x00, 0x0c, 0x00, 
	0x08, 0x00, 0x04, 0x00, 0x0e, 0x00, 0x00, 0x00, 0x14, 0x00, 0x00, 0x00, 
	0x1c, 0x00, 0x00, 0x00, 0xd8, 0x00, 0x00, 0x00, 0xdc, 0x00, 0x00, 0x00, 
	0xe0, 0x00, 0x00, 0x00, 0x04, 0x00, 0x00, 0x00, 0x6d, 0x61, 0x69, 0x6e, 
	0x00, 0x00, 0x00, 0x00, 0x03, 0x00, 0x00, 0x00, 0x80, 0x00, 0x00, 0x00, 
	0x38, 0x00, 0x00, 0x00, 0x04, 0x00, 0x00, 0x00, 0x9a, 0xff, 0xff, 0xff, 
	0x10, 0x00, 0x00, 0x00, 0x00, 0x00, 0x00, 0x08, 0x0c, 0x00, 0x00, 0x00, 
	0x10, 0x00, 0x00, 0x00, 0x9c, 0xfb, 0xff, 0xff, 0x01, 0x00, 0x00, 0x00, 
	0x09, 0x00, 0x00, 0x00, 0x03, 0x00, 0x00, 0x00, 0x08, 0x00, 0x00, 0x00, 
	0x06, 0x00, 0x00, 0x00, 0x02, 0x00, 0x00, 0x00, 0xca, 0xff, 0xff, 0xff, 
	0x10, 0x00, 0x00, 0x00, 0x00, 0x00, 0x00, 0x08, 0x10, 0x00, 0x00, 0x00, 
	0x14, 0x00, 0x00, 0x00, 0xba, 0xff, 0xff, 0xff, 0x00, 0x00, 0x00, 0x01, 
	0x01, 0x00, 0x00, 0x00, 0x08, 0x00, 0x00, 0x00, 0x03, 0x00, 0x00, 0x00, 
	0x07, 0x00, 0x00, 0x00, 0x05, 0x00, 0x00, 0x00, 0x01, 0x00, 0x00, 0x00, 
	0x00, 0x00, 0x0e, 0x00, 0x16, 0x00, 0x00, 0x00, 0x10, 0x00, 0x0c, 0x00, 
	0x0b, 0x00, 0x04, 0x00, 0x0e, 0x00, 0x00, 0x00, 0x18, 0x00, 0x00, 0x00, 
	0x00, 0x00, 0x00, 0x08, 0x18, 0x00, 0x00, 0x00, 0x1c, 0x00, 0x00, 0x00, 
	0x00, 0x00, 0x06, 0x00, 0x08, 0x00, 0x07, 0x00, 0x06, 0x00, 0x00, 0x00, 
	0x00, 0x00, 0x00, 0x01, 0x01, 0x00, 0x00, 0x00, 0x07, 0x00, 0x00, 0x00, 
	0x03, 0x00, 0x00, 0x00, 0x00, 0x00, 0x00, 0x00, 0x04, 0x00, 0x00, 0x00, 
	0x03, 0x00, 0x00, 0x00, 0x01, 0x00, 0x00, 0x00, 0x09, 0x00, 0x00, 0x00, 
	0x01, 0x00, 0x00, 0x00, 0x00, 0x00, 0x00, 0x00, 0x0a, 0x00, 0x00, 0x00, 
	0x8c, 0x03, 0x00, 0x00, 0x1c, 0x03, 0x00, 0x00, 0xac, 0x02, 0x00, 0x00, 
	0x58, 0x02, 0x00, 0x00, 0x10, 0x02, 0x00, 0x00, 0xc4, 0x01, 0x00, 0x00, 
	0x78, 0x01, 0x00, 0x00, 0xf0, 0x00, 0x00, 0x00, 0x60, 0x00, 0x00, 0x00, 
	0x04, 0x00, 0x00, 0x00, 0xb2, 0xfc, 0xff, 0xff, 0x00, 0x00, 0x00, 0x01, 
	0x14, 0x00, 0x00, 0x00, 0x1c, 0x00, 0x00, 0x00, 0x1c, 0x00, 0x00, 0x00, 
	0x0a, 0x00, 0x00, 0x00, 0x34, 0x00, 0x00, 0x00, 0x02, 0x00, 0x00, 0x00, 
	0xff, 0xff, 0xff, 0xff, 0x02, 0x00, 0x00, 0x00, 0x9c, 0xfc, 0xff, 0xff, 
	0x19, 0x00, 0x00, 0x00, 0x53, 0x74, 0x61, 0x74, 0x65, 0x66, 0x75, 0x6c, 
	0x50, 0x61, 0x72, 0x74, 0x69, 0x74, 0x69, 0x6f, 0x6e, 0x65, 0x64, 0x43, 
	0x61, 0x6c, 0x6c, 0x3a, 0x30, 0x00, 0x00, 0x00, 0x02, 0x00, 0x00, 0x00, 
	0x01, 0x00, 0x00, 0x00, 0x02, 0x00, 0x00, 0x00, 0x0a, 0xfd, 0xff, 0xff, 
	0x00, 0x00, 0x00, 0x01, 0x14, 0x00, 0x00, 0x00, 0x1c, 0x00, 0x00, 0x00, 
	0x1c, 0x00, 0x00, 0x00, 0x09, 0x00, 0x00, 0x00, 0x68, 0x00, 0x00, 0x00, 
	0x02, 0x00, 0x00, 0x00, 0xff, 0xff, 0xff, 0xff, 0x10, 0x00, 0x00, 0x00, 
	0xf4, 0xfc, 0xff, 0xff, 0x4c, 0x00, 0x00, 0x00, 0x73, 0x65, 0x71, 0x75, 
	0x65, 0x6e, 0x74, 0x69, 0x61, 0x6c, 0x2f, 0x64, 0x65, 0x6e, 0x73, 0x65, 
	0x5f, 0x31, 0x2f, 0x4d, 0x61, 0x74, 0x4d, 0x75, 0x6c, 0x3b, 0x73, 0x65, 
	0x71, 0x75, 0x65, 0x6e, 0x74, 0x69, 0x61, 0x6c, 0x2f, 0x64, 0x65, 0x6e, 
	0x73, 0x65, 0x5f, 0x31, 0x2f, 0x52, 0x65, 0x6c, 0x75, 0x3b, 0x73, 0x65, 
	0x71, 0x75, 0x65, 0x6e, 0x74, 0x69, 0x61, 0x6c, 0x2f, 0x64, 0x65, 0x6e, 
	0x73, 0x65, 0x5f, 0x31, 0x2f, 0x42, 0x69, 0x61, 0x73, 0x41, 0x64, 0x64, 
	0x00, 0x00, 0x00, 0x00, 0x02, 0x00, 0x00, 0x00, 0x01, 0x00, 0x00, 0x00, 
	0x10, 0x00, 0x00, 0x00, 0x96, 0xfd, 0xff, 0xff, 0x00, 0x00, 0x00, 0x01, 
	0x14, 0x00, 0x00, 0x00, 0x1c, 0x00, 0x00, 0x00, 0x1c, 0x00, 0x00, 0x00, 
	0x08, 0x00, 0x00, 0x00, 0x60, 0x00, 0x00, 0x00, 0x02, 0x00, 0x00, 0x00, 
	0xff, 0xff, 0xff, 0xff, 0x10, 0x00, 0x00, 0x00, 0x80, 0xfd, 0xff, 0xff, 
	0x46, 0x00, 0x00, 0x00, 0x73, 0x65, 0x71, 0x75, 0x65, 0x6e, 0x74, 0x69, 
	0x61, 0x6c, 0x2f, 0x64, 0x65, 0x6e, 0x73, 0x65, 0x2f, 0x4d, 0x61, 0x74, 
	0x4d, 0x75, 0x6c, 0x3b, 0x73, 0x65, 0x71, 0x75, 0x65, 0x6e, 0x74, 0x69, 
	0x61, 0x6c, 0x2f, 0x64, 0x65, 0x6e, 0x73, 0x65, 0x2f, 0x52, 0x65, 0x6c, 
	0x75, 0x3b, 0x73, 0x65, 0x71, 0x75, 0x65, 0x6e, 0x74, 0x69, 0x61, 0x6c, 
	0x2f, 0x64, 0x65, 0x6e, 0x73, 0x65, 0x2f, 0x42, 0x69, 0x61, 0x73, 0x41, 
	0x64, 0x64, 0x00, 0x00, 0x02, 0x00, 0x00, 0x00, 0x01, 0x00, 0x00, 0x00, 
	0x10, 0x00, 0x00, 0x00, 0x86, 0xfe, 0xff, 0xff, 0x00, 0x00, 0x00, 0x01, 
	0x10, 0x00, 0x00, 0x00, 0x10, 0x00, 0x00, 0x00, 0x07, 0x00, 0x00, 0x00, 
	0x28, 0x00, 0x00, 0x00, 0xf4, 0xfd, 0xff, 0xff, 0x19, 0x00, 0x00, 0x00, 
	0x73, 0x65, 0x71, 0x75, 0x65, 0x6e, 0x74, 0x69, 0x61, 0x6c, 0x2f, 0x64, 
	0x65, 0x6e, 0x73, 0x65, 0x5f, 0x32, 0x2f, 0x4d, 0x61, 0x74, 0x4d, 0x75, 
	0x6c, 0x00, 0x00, 0x00, 0x02, 0x00, 0x00, 0x00, 0x02, 0x00, 0x00, 0x00, 
	0x10, 0x00, 0x00, 0x00, 0xce, 0xfe, 0xff, 0xff, 0x00, 0x00, 0x00, 0x01, 
	0x10, 0x00, 0x00, 0x00, 0x10, 0x00, 0x00, 0x00, 0x06, 0x00, 0x00, 0x00, 
	0x28, 0x00, 0x00, 0x00, 0x3c, 0xfe, 0xff, 0xff, 0x19, 0x00, 0x00, 0x00, 
	0x73, 0x65, 0x71, 0x75, 0x65, 0x6e, 0x74, 0x69, 0x61, 0x6c, 0x2f, 0x64, 
	0x65, 0x6e, 0x73, 0x65, 0x5f, 0x31, 0x2f, 0x4d, 0x61, 0x74, 0x4d, 0x75, 
	0x6c, 0x00, 0x00, 0x00, 0x02, 0x00, 0x00, 0x00, 0x10, 0x00, 0x00, 0x00, 
	0x10, 0x00, 0x00, 0x00, 0x16, 0xff, 0xff, 0xff, 0x00, 0x00, 0x00, 0x01, 
	0x10, 0x00, 0x00, 0x00, 0x10, 0x00, 0x00, 0x00, 0x05, 0x00, 0x00, 0x00, 
	0x24, 0x00, 0x00, 0x00, 0x84, 0xfe, 0xff, 0xff, 0x17, 0x00, 0x00, 0x00, 
	0x73, 0x65, 0x71, 0x75, 0x65, 0x6e, 0x74, 0x69, 0x61, 0x6c, 0x2f, 0x64, 
	0x65, 0x6e, 0x73, 0x65, 0x2f, 0x4d, 0x61, 0x74, 0x4d, 0x75, 0x6c, 0x00, 
	0x02, 0x00, 0x00, 0x00, 0x10, 0x00, 0x00, 0x00, 0x03, 0x00, 0x00, 0x00, 
	0x5a, 0xff, 0xff, 0xff, 0x00, 0x00, 0x00, 0x01, 0x10, 0x00, 0x00, 0x00, 
	0x10, 0x00, 0x00, 0x00, 0x04, 0x00, 0x00, 0x00, 0x34, 0x00, 0x00, 0x00, 
	0xc8, 0xfe, 0xff, 0xff, 0x27, 0x00, 0x00, 0x00, 0x73, 0x65, 0x71, 0x75, 
	0x65, 0x6e, 0x74, 0x69, 0x61, 0x6c, 0x2f, 0x64, 0x65, 0x6e, 0x73, 0x65, 
	0x2f, 0x42, 0x69, 0x61, 0x73, 0x41, 0x64, 0x64, 0x2f, 0x52, 0x65, 0x61, 
	0x64, 0x56, 0x61, 0x72, 0x69, 0x61, 0x62, 0x6c, 0x65, 0x4f, 0x70, 0x00, 
	0x01, 0x00, 0x00, 0x00, 0x10, 0x00, 0x00, 0x00, 0xaa, 0xff, 0xff, 0xff, 
	0x00, 0x00, 0x00, 0x01, 0x10, 0x00, 0x00, 0x00, 0x10, 0x00, 0x00, 0x00, 
	0x03, 0x00, 0x00, 0x00, 0x38, 0x00, 0x00, 0x00, 0x18, 0xff, 0xff, 0xff, 
	0x29, 0x00, 0x00, 0x00, 0x73, 0x65, 0x71, 0x75, 0x65, 0x6e, 0x74, 0x69, 
	0x61, 0x6c, 0x2f, 0x64, 0x65, 0x6e, 0x73, 0x65, 0x5f, 0x32, 0x2f, 0x42, 
	0x69, 0x61, 0x73, 0x41, 0x64, 0x64, 0x2f, 0x52, 0x65, 0x61, 0x64, 0x56, 
	0x61, 0x72, 0x69, 0x61, 0x62, 0x6c, 0x65, 0x4f, 0x70, 0x00, 0x00, 0x00, 
	0x01, 0x00, 0x00, 0x00, 0x02, 0x00, 0x00, 0x00, 0x00, 0x00, 0x16, 0x00, 
	0x18, 0x00, 0x14, 0x00, 0x00, 0x00, 0x10, 0x00, 0x0c, 0x00, 0x08, 0x00, 
	0x00, 0x00, 0x00, 0x00, 0x00, 0x00, 0x07, 0x00, 0x16, 0x00, 0x00, 0x00, 
	0x00, 0x00, 0x00, 0x01, 0x10, 0x00, 0x00, 0x00, 0x10, 0x00, 0x00, 0x00, 
	0x02, 0x00, 0x00, 0x00, 0x38, 0x00, 0x00, 0x00, 0x84, 0xff, 0xff, 0xff, 
	0x29, 0x00, 0x00, 0x00, 0x73, 0x65, 0x71, 0x75, 0x65, 0x6e, 0x74, 0x69, 
	0x61, 0x6c, 0x2f, 0x64, 0x65, 0x6e, 0x73, 0x65, 0x5f, 0x31, 0x2f, 0x42, 
	0x69, 0x61, 0x73, 0x41, 0x64, 0x64, 0x2f, 0x52, 0x65, 0x61, 0x64, 0x56, 
	0x61, 0x72, 0x69, 0x61, 0x62, 0x6c, 0x65, 0x4f, 0x70, 0x00, 0x00, 0x00, 
	0x01, 0x00, 0x00, 0x00, 0x10, 0x00, 0x00, 0x00, 0x00, 0x00, 0x16, 0x00, 
	0x1c, 0x00, 0x18, 0x00, 0x00, 0x00, 0x14, 0x00, 0x10, 0x00, 0x0c, 0x00, 
	0x00, 0x00, 0x00, 0x00, 0x08, 0x00, 0x07, 0x00, 0x16, 0x00, 0x00, 0x00, 
	0x00, 0x00, 0x00, 0x01, 0x14, 0x00, 0x00, 0x00, 0x20, 0x00, 0x00, 0x00, 
	0x20, 0x00, 0x00, 0x00, 0x01, 0x00, 0x00, 0x00, 0x3c, 0x00, 0x00, 0x00, 
	0x02, 0x00, 0x00, 0x00, 0xff, 0xff, 0xff, 0xff, 0x03, 0x00, 0x00, 0x00, 
	0x04, 0x00, 0x04, 0x00, 0x04, 0x00, 0x00, 0x00, 0x1d, 0x00, 0x00, 0x00, 
	0x73, 0x65, 0x72, 0x76, 0x69, 0x6e, 0x67, 0x5f, 0x64, 0x65, 0x66, 0x61, 
	0x75, 0x6c, 0x74, 0x5f, 0x64, 0x65, 0x6e, 0x73, 0x65, 0x5f, 0x69, 0x6e, 
	0x70, 0x75, 0x74, 0x3a, 0x30, 0x00, 0x00, 0x00, 0x02, 0x00, 0x00, 0x00, 
	0x01, 0x00, 0x00, 0x00, 0x03, 0x00, 0x00, 0x00, 0x01, 0x00, 0x00, 0x00, 
	0x10, 0x00, 0x00, 0x00, 0x0c, 0x00, 0x0c, 0x00, 0x0b, 0x00, 0x00, 0x00, 
	0x00, 0x00, 0x04, 0x00, 0x0c, 0x00, 0x00, 0x00, 0x09, 0x00, 0x00, 0x00, 
	0x00, 0x00, 0x00, 0x09
};
const int invkine_model_len = 3364;